{
  "version": "1.0",
  "truncation": null,
  "padding": null,
  "added_tokens": [
    {
      "id": 0,
      "content": "[UNK]",
      "single_word": false,
      "lstrip": false,
      "rstrip": false,
      "normalized": false,
      "special": true
    },
    {
      "id": 1,
      "content": "[CLS]",
      "single_word": false,
      "lstrip": false,
      "rstrip": false,
      "normalized": false,
      "special": true
    },
    {
      "id": 2,
      "content": "[SEP]",
      "single_word": false,
      "lstrip": false,
      "rstrip": false,
      "normalized": false,
      "special": true
    },
    {
      "id": 3,
      "content": "[PAD]",
      "single_word": false,
      "lstrip": false,
      "rstrip": false,
      "normalized": false,
      "special": true
    },
    {
      "id": 4,
      "content": "[MASK]",
      "single_word": false,
      "lstrip": false,
      "rstrip": false,
      "normalized": false,
      "special": true
    }
  ],
  "normalizer": null,
  "pre_tokenizer": {
    "type": "Whitespace"
  },
  "post_processor": null,
  "decoder": null,
  "model": {
    "type": "BPE",
    "dropout": null,
    "unk_token": "[UNK]",
    "continuing_subword_prefix": null,
    "end_of_word_suffix": null,
    "fuse_unk": false,
    "byte_fallback": false,
    "vocab": {
      "[UNK]": 0,
      "[CLS]": 1,
      "[SEP]": 2,
      "[PAD]": 3,
      "[MASK]": 4,
      "!": 5,
      "\"": 6,
      "$": 7,
      "&": 8,
      "'": 9,
      "(": 10,
      ")": 11,
      ",": 12,
      "-": 13,
      ".": 14,
      "/": 15,
      "0": 16,
      "1": 17,
      "2": 18,
      "3": 19,
      "4": 20,
      "5": 21,
      "6": 22,
      "7": 23,
      "8": 24,
      "9": 25,
      ":": 26,
      ";": 27,
      "?": 28,
      "@": 29,
      "A": 30,
      "B": 31,
      "C": 32,
      "D": 33,
      "E": 34,
      "F": 35,
      "G": 36,
      "H": 37,
      "I": 38,
      "J": 39,
      "K": 40,
      "L": 41,
      "M": 42,
      "N": 43,
      "O": 44,
      "P": 45,
      "Q": 46,
      "R": 47,
      "S": 48,
      "T": 49,
      "U": 50,
      "V": 51,
      "W": 52,
      "X": 53,
      "Y": 54,
      "Z": 55,
      "[": 56,
      "]": 57,
      "a": 58,
      "b": 59,
      "c": 60,
      "d": 61,
      "e": 62,
      "f": 63,
      "g": 64,
      "h": 65,
      "i": 66,
      "j": 67,
      "k": 68,
      "l": 69,
      "m": 70,
      "n": 71,
      "o": 72,
      "p": 73,
      "q": 74,
      "r": 75,
      "s": 76,
      "t": 77,
      "u": 78,
      "v": 79,
      "w": 80,
      "x": 81,
      "y": 82,
      "z": 83,
      "£": 84,
      "©": 85,
      "»": 86,
      "​": 87,
      "‑": 88,
      "—": 89,
      "th": 90,
      "in": 91,
      "er": 92,
      "an": 93,
      "the": 94,
      "on": 95,
      "re": 96,
      "at": 97,
      "ed": 98,
      "en": 99,
      "to": 100,
      "is": 101,
      "al": 102,
      "ing": 103,
      "or": 104,
      "ou": 105,
      "ar": 106,
      "es": 107,
      "as": 108,
      "it": 109,
      "of": 110,
      "and": 111,
      "id": 112,
      "he": 113,
      "le": 114,
      "st": 115,
      "ic": 116,
      "il": 117,
      "ent": 118,
      "ac": 119,
      "om": 120,
      "ay": 121,
      "be": 122,
      "el": 123,
      "ion": 124,
      "ad": 125,
      "ve": 126,
      "ter": 127,
      "ch": 128,
      "am": 129,
      "se": 130,
      "ot": 131,
      "wh": 132,
      "for": 133,
      "ly": 134,
      "ag": 135,
      "ow": 136,
      "ol": 137,
      "ri": 138,
      "ere": 139,
      "that": 140,
      "ur": 141,
      "The": 142,
      "are": 143,
      "sa": 144,
      "ver": 145,
      "ill": 146,
      "ir": 147,
      "was": 148,
      "im": 149,
      "ut": 150,
      "said": 151,
      "ig": 152,
      "ha": 153,
      "ts": 154,
      "pr": 155,
      "ith": 156,
      "sp": 157,
      "his": 158,
      "ld": 159,
      "ne": 160,
      "with": 161,
      "ab": 162,
      "ment": 163,
      "op": 164,
      "not": 165,
      "un": 166,
      "de": 167,
      "ap": 168,
      "oun": 169,
      "our": 170,
      "su": 171,
      "out": 172,
      "con": 173,
      "ce": 174,
      "pl": 175,
      "tr": 176,
      "fr": 177,
      "all": 178,
      "com": 179,
      "if": 180,
      "ers": 181,
      "ge": 182,
      "have": 183,
      "oc": 184,
      "one": 185,
      "we": 186,
      "ate": 187,
      "pe": 188,
      "ation": 189,
      "ke": 190,
      "ther": 191,
      ",\"": 192,
      "ted": 193,
      "by": 194,
      "man": 195,
      "os": 196,
      ".\"": 197,
      "ust": 198,
      "were": 199,
      "mo": 200,
      "ard": 201,
      "cl": 202,
      "ex": 203,
      "from": 204,
      "--": 205,
      "ain": 206,
      "gh": 207,
      "ian": 208,
      "sh": 209,
      "res": 210,
      "ick": 211,
      "ell": 212,
      "end": 213,
      "who": 214,
      "ive": 215,
      "ould": 216,
      "est": 217,
      "ome": 218,
      "br": 219,
      "ul": 220,
      "has": 221,
      "do": 222,
      "day": 223,
      "ity": 224,
      "au": 225,
      "ear": 226,
      "igh": 227,
      "but": 228,
      "gr": 229,
      "ue": 230,
      "als": 231,
      "ia": 232,
      "iv": 233,
      "oo": 234,
      "ran": 235,
      "this": 236,
      "act": 237,
      "St": 238,
      "ple": 239,
      "ies": 240,
      "over": 241,
      "wor": 242,
      "ine": 243,
      "ree": 244,
      "He": 245,
      "me": 246,
      "ally": 247,
      "ess": 248,
      "own": 249,
      "ound": 250,
      "Th": 251,
      "up": 252,
      "you": 253,
      "red": 254,
      "art": 255,
      "20": 256,
      "NN": 257,
      "Vick": 258,
      "af": 259,
      "ct": 260,
      "don": 261,
      "fo": 262,
      "just": 263,
      "li": 264,
      "por": 265,
      "say": 266,
      "will": 267,
      "year": 268,
      "ans": 269,
      "ary": 270,
      "been": 271,
      "CNN": 272,
      "tim": 273,
      "ast": 274,
      "play": 275,
      "ding": 276,
      "other": 277,
      "te": 278,
      "us": 279,
      "they": 280,
      "ack": 281,
      "pro": 282,
      "can": 283,
      "ew": 284,
      "now": 285,
      "qu": 286,
      "about": 287,
      "tor": 288,
      "off": 289,
      "ice": 290,
      "ma": 291,
      "thing": 292,
      "ated": 293,
      "ide": 294,
      "ident": 295,
      "It": 296,
      "car": 297,
      "ting": 298,
      "ous": 299,
      "acc": 300,
      "ace": 301,
      "age": 302,
      "ign": 303,
      "ople": 304,
      "after": 305,
      "av": 306,
      "der": 307,
      "ever": 308,
      "si": 309,
      "some": 310,
      "wo": 311,
      "way": 312,
      "ong": 313,
      "people": 314,
      "An": 315,
      "her": 316,
      "had": 317,
      "per": 318,
      "ved": 319,
      "their": 320,
      "ich": 321,
      "ame": 322,
      "bo": 323,
      "col": 324,
      "ta": 325,
      "ub": 326,
      "ough": 327,
      "ite": 328,
      "where": 329,
      "go": 330,
      "mer": 331,
      "mon": 332,
      "two": 333,
      "um": 334,
      "vi": 335,
      "state": 336,
      "fore": 337,
      "In": 338,
      "co": 339,
      "cer": 340,
      "could": 341,
      "him": 342,
      "po": 343,
      "part": 344,
      "ty": 345,
      "ind": 346,
      "ording": 347,
      "ely": 348,
      "wee": 349,
      "dog": 350,
      "00": 351,
      "Le": 352,
      "fir": 353,
      "iz": 354,
      "kid": 355,
      "mat": 356,
      "med": 357,
      "no": 358,
      "pres": 359,
      "sur": 360,
      "its": 361,
      "char": 362,
      "new": 363,
      "says": 364,
      "But": 365,
      "Wh": 366,
      "ber": 367,
      "cau": 368,
      "ip": 369,
      "pa": 370,
      "ry": 371,
      "than": 372,
      "ant": 373,
      "rec": 374,
      "ass": 375,
      "ents": 376,
      "which": 377,
      "ague": 378,
      "also": 379,
      "ook": 380,
      "LS": 381,
      "MLS": 382,
      "cour": 383,
      "did": 384,
      "down": 385,
      "ial": 386,
      "ud": 387,
      "would": 388,
      "inter": 389,
      "any": 390,
      "told": 391,
      "hel": 392,
      "ions": 393,
      "again": 394,
      "illing": 395,
      "get": 396,
      "donor": 397,
      "Iran": 398,
      "Un": 399,
      "We": 400,
      "ble": 401,
      "cas": 402,
      "dr": 403,
      "ep": 404,
      "ev": 405,
      "fe": 406,
      "gu": 407,
      "land": 408,
      "last": 409,
      "min": 410,
      "may": 411,
      "pare": 412,
      "pos": 413,
      "so": 414,
      "there": 415,
      "iss": 416,
      "ist": 417,
      "when": 418,
      "years": 419,
      "time": 420,
      "according": 421,
      "Pal": 422,
      "Sch": 423,
      "cri": 424,
      "di": 425,
      "ger": 426,
      "ho": 427,
      "ms": 428,
      "ro": 429,
      "sc": 430,
      "read": 431,
      "ish": 432,
      "ical": 433,
      "They": 434,
      "ney": 435,
      "more": 436,
      "like": 437,
      "players": 438,
      "first": 439,
      "paren": 440,
      "Palest": 441,
      "19": 442,
      "aw": 443,
      "ck": 444,
      "dis": 445,
      "des": 446,
      "fer": 447,
      "lo": 448,
      "ten": 449,
      "well": 450,
      "your": 451,
      "ink": 452,
      "ins": 453,
      "into": 454,
      "then": 455,
      "ren": 456,
      "spit": 457,
      "ight": 458,
      "work": 459,
      "against": 460,
      "Al": 461,
      "New": 462,
      "Zar": 463,
      "ball": 464,
      "ged": 465,
      "ning": 466,
      "three": 467,
      "only": 468,
      "reat": 469,
      "repor": 470,
      "ists": 471,
      "oup": 472,
      "ach": 473,
      "being": 474,
      "ters": 475,
      "cont": 476,
      "ational": 477,
      "ood": 478,
      "dogs": 479,
      "help": 480,
      "Schilling": 481,
      "Zarif": 482,
      "back": 483,
      "ces": 484,
      "coun": 485,
      "et": 486,
      "fi": 487,
      "gin": 488,
      "got": 489,
      "mit": 490,
      "ok": 491,
      "ph": 492,
      "pre": 493,
      "ra": 494,
      "she": 495,
      "sign": 496,
      "inc": 497,
      "ens": 498,
      "tour": 499,
      "ited": 500,
      "before": 501,
      "able": 502,
      "cond": 503,
      "201": 504,
      "statement": 505,
      "kidney": 506,
      "president": 507,
      "As": 508,
      "Cay": 509,
      "ak": 510,
      "fri": 511,
      "five": 512,
      "gen": 513,
      "ients": 514,
      "led": 515,
      "my": 516,
      "mes": 517,
      "ure": 518,
      "ush": 519,
      "ving": 520,
      "wr": 521,
      "wan": 522,
      "inv": 523,
      "incl": 524,
      "reed": 525,
      "rest": 526,
      "att": 527,
      "ark": 528,
      "arch": 529,
      "ased": 530,
      "ities": 531,
      "idge": 532,
      "league": 533,
      "set": 534,
      "old": 535,
      "under": 536,
      "ght": 537,
      "bridge": 538,
      "group": 539,
      "every": 540,
      "And": 541,
      "court": 542,
      "Cayman": 543,
      "At": 544,
      "Be": 545,
      "ail": 546,
      "bu": 547,
      "ef": 548,
      "fin": 549,
      "fil": 550,
      "four": 551,
      "found": 552,
      "how": 553,
      "ile": 554,
      "ious": 555,
      "jo": 556,
      "miss": 557,
      "ose": 558,
      "ps": 559,
      "rid": 560,
      "sid": 561,
      "soc": 562,
      "uch": 563,
      "ys": 564,
      "think": 565,
      "resp": 566,
      "ater": 567,
      "ence": 568,
      "ister": 569,
      "ali": 570,
      "ition": 571,
      "ican": 572,
      "omis": 573,
      "sec": 574,
      "see": 575,
      "ote": 576,
      "illion": 577,
      "try": 578,
      "come": 579,
      "ifman": 580,
      "ations": 581,
      "most": 582,
      "ians": 583,
      "That": 584,
      "month": 585,
      "Leifman": 586,
      "cause": 587,
      "Iranian": 588,
      "friend": 589,
      "CC": 590,
      "Frid": 591,
      "ICC": 592,
      "Min": 593,
      "bs": 594,
      "ks": 595,
      "know": 596,
      "low": 597,
      "long": 598,
      "million": 599,
      "pat": 600,
      "pow": 601,
      "ton": 602,
      "twee": 603,
      "went": 604,
      "them": 605,
      "rece": 606,
      "because": 607,
      "what": 608,
      "urn": 609,
      "uring": 610,
      "comple": 611,
      "club": 612,
      "State": 613,
      "200": 614,
      "make": 615,
      "six": 616,
      "match": 617,
      "United": 618,
      "hospit": 619,
      "respon": 620,
      "Friday": 621,
      "Amer": 622,
      "Bush": 623,
      "Ch": 624,
      "Is": 625,
      "Mon": 626,
      "Te": 627,
      "This": 628,
      "Vir": 629,
      "bl": 630,
      "big": 631,
      "book": 632,
      "cap": 633,
      "ec": 634,
      "em": 635,
      "fac": 636,
      "fam": 637,
      "flo": 638,
      "ges": 639,
      "hard": 640,
      "home": 641,
      "ix": 642,
      "iver": 643,
      "king": 644,
      "loc": 645,
      "nes": 646,
      "national": 647,
      "ped": 648,
      "rough": 649,
      "turn": 650,
      "uary": 651,
      "ward": 652,
      "youn": 653,
      "though": 654,
      "ann": 655,
      "rem": 656,
      "rele": 657,
      "ating": 658,
      "atch": 659,
      "ort": 660,
      "ase": 661,
      "ash": 662,
      "str": 663,
      "enter": 664,
      "add": 665,
      "ams": 666,
      "agreed": 667,
      "ried": 668,
      "ries": 669,
      "deal": 670,
      "appe": 671,
      "susp": 672,
      "tru": 673,
      "world": 674,
      "foot": 675,
      "offic": 676,
      "mail": 677,
      "bod": 678,
      "going": 679,
      "view": 680,
      "000": 681,
      "recip": 682,
      "even": 683,
      "Palestin": 684,
      "ginia": 685,
      "mitted": 686,
      "incident": 687,
      "power": 688,
      "Virginia": 689,
      "floor": 690,
      "Br": 691,
      "Cis": 692,
      "Ev": 693,
      "Fran": 694,
      "Fren": 695,
      "Gomis": 696,
      "Jan": 697,
      "Pe": 698,
      "Ph": 699,
      "So": 700,
      "Sat": 701,
      "Wed": 702,
      "ave": 703,
      "care": 704,
      "ft": 705,
      "ful": 706,
      "game": 707,
      "ier": 708,
      "jail": 709,
      "less": 710,
      "look": 711,
      "mad": 712,
      "nor": 713,
      "num": 714,
      "page": 715,
      "son": 716,
      "sent": 717,
      "sel": 718,
      "sch": 719,
      "tal": 720,
      "treat": 721,
      "through": 722,
      "ince": 723,
      "ance": 724,
      "ret": 725,
      "resu": 726,
      "alth": 727,
      "alle": 728,
      "left": 729,
      "ilty": 730,
      "chain": 731,
      "search": 732,
      "while": 733,
      "form": 734,
      "agree": 735,
      "urday": 736,
      "pris": 737,
      "proc": 738,
      "need": 739,
      "ments": 740,
      "mental": 741,
      "many": 742,
      "moved": 743,
      "exam": 744,
      "expe": 745,
      "shot": 746,
      "ress": 747,
      "ended": 748,
      "ived": 749,
      "Stat": 750,
      "plea": 751,
      "port": 752,
      "tory": 753,
      "post": 754,
      "udge": 755,
      "case": 756,
      "guilty": 757,
      "parent": 758,
      "inclu": 759,
      "sider": 760,
      "patients": 761,
      "famil": 762,
      "nesday": 763,
      "Cisse": 764,
      "French": 765,
      "Saturday": 766,
      "Wednesday": 767,
      "number": 768,
      "10": 769,
      "City": 770,
      "De": 771,
      "Face": 772,
      "If": 773,
      "Mi": 774,
      "Pot": 775,
      "Re": 776,
      "She": 777,
      "aim": 778,
      "ather": 779,
      "cy": 780,
      "ced": 781,
      "cted": 782,
      "ds": 783,
      "figh": 784,
      "free": 785,
      "fans": 786,
      "gan": 787,
      "good": 788,
      "hal": 789,
      "ham": 790,
      "ie": 791,
      "ired": 792,
      "lan": 793,
      "lit": 794,
      "lap": 795,
      "lif": 796,
      "nam": 797,
      "oth": 798,
      "pt": 799,
      "pit": 800,
      "pol": 801,
      "pub": 802,
      "sal": 803,
      "sit": 804,
      "sard": 805,
      "une": 806,
      "vel": 807,
      "war": 808,
      "those": 809,
      "eral": 810,
      "ang": 811,
      "these": 812,
      "rect": 813,
      "ately": 814,
      "top": 815,
      "ors": 816,
      "star": 817,
      "still": 818,
      "ict": 819,
      "ago": 820,
      "aged": 821,
      "ages": 822,
      "right": 823,
      "urs": 824,
      "ute": 825,
      "ution": 826,
      "prop": 827,
      "ably": 828,
      "mentally": 829,
      "ount": 830,
      "sup": 831,
      "sure": 832,
      "consider": 833,
      "comm": 834,
      "webs": 835,
      "ustr": 836,
      "ards": 837,
      "mean": 838,
      "justice": 839,
      "times": 840,
      "player": 841,
      "quick": 842,
      "things": 843,
      "oussard": 844,
      "both": 845,
      "colon": 846,
      "surv": 847,
      "charges": 848,
      "White": 849,
      "pair": 850,
      "international": 851,
      "feel": 852,
      "crimes": 853,
      "parents": 854,
      "Palestine": 855,
      "descri": 856,
      "tourists": 857,
      "effor": 858,
      "American": 859,
      "young": 860,
      "thought": 861,
      "appear": 862,
      "Broussard": 863,
      "January": 864,
      "alleged": 865,
      "proced": 866,
      "Facebook": 867,
      "Potter": 868,
      "half": 869,
      "website": 870,
      "25": 871,
      "Con": 872,
      "Dav": 873,
      "FL": 874,
      "Fo": 875,
      "Hou": 876,
      "Mo": 877,
      "Med": 878,
      "NFL": 879,
      "Or": 880,
      "Rome": 881,
      "San": 882,
      "Wor": 883,
      "ah": 884,
      "bes": 885,
      "bul": 886,
      "cc": 887,
      "che": 888,
      "cle": 889,
      "came": 890,
      "da": 891,
      "dau": 892,
      "due": 893,
      "during": 894,
      "fed": 895,
      "fall": 896,
      "give": 897,
      "giv": 898,
      "gover": 899,
      "high": 900,
      "ied": 901,
      "ient": 902,
      "ials": 903,
      "iated": 904,
      "kes": 905,
      "kill": 906,
      "ll": 907,
      "lic": 908,
      "mone": 909,
      "mber": 910,
      "mark": 911,
      "much": 912,
      "ny": 913,
      "ool": 914,
      "pp": 915,
      "ris": 916,
      "run": 917,
      "sy": 918,
      "ser": 919,
      "sim": 920,
      "side": 921,
      "tle": 922,
      "tic": 923,
      "til": 924,
      "tain": 925,
      "ves": 926,
      "win": 927,
      "won": 928,
      "wit": 929,
      "zel": 930,
      "thor": 931,
      "inary": 932,
      "anzel": 933,
      "reg": 934,
      "rel": 935,
      "real": 936,
      "attr": 937,
      "ene": 938,
      "ences": 939,
      "ings": 940,
      "around": 941,
      "arry": 942,
      "leg": 943,
      "let": 944,
      "step": 945,
      "acce": 946,
      "become": 947,
      "admitted": 948,
      "terri": 949,
      "ches": 950,
      "ami": 951,
      "amp": 952,
      "ollow": 953,
      "ribut": 954,
      "open": 955,
      "oppos": 956,
      "def": 957,
      "dead": 958,
      "contr": 959,
      "trans": 960,
      "oss": 961,
      "clos": 962,
      "claim": 963,
      "estig": 964,
      "does": 965,
      "Stanzel": 966,
      "There": 967,
      "ctive": 968,
      "lie": 969,
      "teams": 970,
      "uss": 971,
      "used": 972,
      "cancer": 973,
      "tors": 974,
      "something": 975,
      "peri": 976,
      "collap": 977,
      "take": 978,
      "foreign": 979,
      "poly": 980,
      "League": 981,
      "media": 982,
      "ready": 983,
      "report": 984,
      "country": 985,
      "2014": 986,
      "investig": 987,
      "attack": 988,
      "mission": 989,
      "hospital": 990,
      "Monday": 991,
      "released": 992,
      "truck": 993,
      "football": 994,
      "body": 995,
      "Evans": 996,
      "resul": 997,
      "agreement": 998,
      "Miami": 999,
      "life": 1000,
      "efforts": 1001,
      "procedure": 1002,
      "David": 1003,
      "House": 1004,
      "daugh": 1005,
      "money": 1006,
      "ributed": 1007,
      "Ad": 1008,
      "Af": 1009,
      "Ar": 1010,
      "Bab": 1011,
      "Cali": 1012,
      "Center": 1013,
      "Fal": 1014,
      "Good": 1015,
      "Hol": 1016,
      "Jon": 1017,
      "June": 1018,
      "Man": 1019,
      "Mal": 1020,
      "Mell": 1021,
      "Mali": 1022,
      "No": 1023,
      "National": 1024,
      "On": 1025,
      "Rad": 1026,
      "Russ": 1027,
      "Se": 1028,
      "Snow": 1029,
      "Swan": 1030,
      "Watch": 1031,
      "ath": 1032,
      "bor": 1033,
      "bit": 1034,
      "cr": 1035,
      "cis": 1036,
      "cit": 1037,
      "den": 1038,
      "eir": 1039,
      "each": 1040,
      "fact": 1041,
      "face": 1042,
      "father": 1043,
      "follow": 1044,
      "gam": 1045,
      "hu": 1046,
      "hit": 1047,
      "iel": 1048,
      "ipl": 1049,
      "judge": 1050,
      "ker": 1051,
      "kind": 1052,
      "ling": 1053,
      "lor": 1054,
      "lim": 1055,
      "mb": 1056,
      "mid": 1057,
      "mil": 1058,
      "mom": 1059,
      "mess": 1060,
      "nment": 1061,
      "nia": 1062,
      "ness": 1063,
      "od": 1064,
      "og": 1065,
      "pun": 1066,
      "pted": 1067,
      "sed": 1068,
      "sol": 1069,
      "sity": 1070,
      "story": 1071,
      "ug": 1072,
      "ured": 1073,
      "vis": 1074,
      "vide": 1075,
      "xt": 1076,
      "inj": 1077,
      "ert": 1078,
      "ances": 1079,
      "removed": 1080,
      "issu": 1081,
      "already": 1082,
      "oud": 1083,
      "aring": 1084,
      "arrest": 1085,
      "ask": 1086,
      "ason": 1087,
      "often": 1088,
      "ided": 1089,
      "lead": 1090,
      "least": 1091,
      "stri": 1092,
      "ild": 1093,
      "ility": 1094,
      "ently": 1095,
      "beha": 1096,
      "ional": 1097,
      "ado": 1098,
      "term": 1099,
      "sea": 1100,
      "second": 1101,
      "former": 1102,
      "fornia": 1103,
      "olved": 1104,
      "river": 1105,
      "urt": 1106,
      "Theia": 1107,
      "saw": 1108,
      "very": 1109,
      "illip": 1110,
      "haps": 1111,
      "prof": 1112,
      "prote": 1113,
      "spir": 1114,
      "spok": 1115,
      "until": 1116,
      "devel": 1117,
      "death": 1118,
      "apparent": 1119,
      "sub": 1120,
      "keep": 1121,
      "thern": 1122,
      "move": 1123,
      "exact": 1124,
      "experi": 1125,
      "sho": 1126,
      "should": 1127,
      "resident": 1128,
      "ells": 1129,
      "bring": 1130,
      "brother": 1131,
      "ult": 1132,
      "ights": 1133,
      "ground": 1134,
      "ineau": 1135,
      "Thurs": 1136,
      "saying": 1137,
      "tem": 1138,
      "prob": 1139,
      "prosec": 1140,
      "cars": 1141,
      "sometimes": 1142,
      "perhaps": 1143,
      "colle": 1144,
      "Inter": 1145,
      "cost": 1146,
      "week": 1147,
      "weeks": 1148,
      "ized": 1149,
      "kids": 1150,
      "medical": 1151,
      "news": 1152,
      "caught": 1153,
      "Univer": 1154,
      "role": 1155,
      "inside": 1156,
      "worked": 1157,
      "reported": 1158,
      "contin": 1159,
      "contributed": 1160,
      "fiel": 1161,
      "phys": 1162,
      "rael": 1163,
      "signed": 1164,
      "gener": 1165,
      "involved": 1166,
      "everything": 1167,
      "join": 1168,
      "itional": 1169,
      "received": 1170,
      "Israel": 1171,
      "Teix": 1172,
      "recipient": 1173,
      "Palestinian": 1174,
      "Peace": 1175,
      "Phillip": 1176,
      "self": 1177,
      "school": 1178,
      "treatment": 1179,
      "prison": 1180,
      "shots": 1181,
      "posted": 1182,
      "including": 1183,
      "little": 1184,
      "police": 1185,
      "public": 1186,
      "support": 1187,
      "commun": 1188,
      "Medical": 1189,
      "World": 1190,
      "clear": 1191,
      "federal": 1192,
      "government": 1193,
      "defend": 1194,
      "closer": 1195,
      "polyps": 1196,
      "After": 1197,
      "Babineau": 1198,
      "California": 1199,
      "Falcon": 1200,
      "Jonny": 1201,
      "Mellado": 1202,
      "Russian": 1203,
      "Swansea": 1204,
      "eira": 1205,
      "develop": 1206,
      "Thursday": 1207,
      "University": 1208,
      "Teixeira": 1209,
      "Phillips": 1210,
      "30": 1211,
      "Afr": 1212,
      "Austr": 1213,
      "Acc": 1214,
      "Cl": 1215,
      "Can": 1216,
      "Eb": 1217,
      "Ear": 1218,
      "Gab": 1219,
      "Hu": 1220,
      "Here": 1221,
      "Harry": 1222,
      "Ker": 1223,
      "Kans": 1224,
      "Mc": 1225,
      "Mary": 1226,
      "March": 1227,
      "Ne": 1228,
      "One": 1229,
      "Part": 1230,
      "President": 1231,
      "Sc": 1232,
      "Sh": 1233,
      "Soc": 1234,
      "TV": 1235,
      "Twit": 1236,
      "Wash": 1237,
      "Yor": 1238,
      "You": 1239,
      "Year": 1240,
      "away": 1241,
      "bre": 1242,
      "bed": 1243,
      "bir": 1244,
      "cur": 1245,
      "cop": 1246,
      "cover": 1247,
      "done": 1248,
      "ect": 1249,
      "eight": 1250,
      "email": 1251,
      "fun": 1252,
      "fine": 1253,
      "gone": 1254,
      "gress": 1255,
      "hind": 1256,
      "ib": 1257,
      "ially": 1258,
      "ken": 1259,
      "killing": 1260,
      "la": 1261,
      "lam": 1262,
      "late": 1263,
      "line": 1264,
      "men": 1265,
      "mis": 1266,
      "ming": 1267,
      "mar": 1268,
      "mall": 1269,
      "mary": 1270,
      "nin": 1271,
      "oad": 1272,
      "py": 1273,
      "pri": 1274,
      "pers": 1275,
      "ru": 1276,
      "ror": 1277,
      "sw": 1278,
      "sister": 1279,
      "since": 1280,
      "tri": 1281,
      "ven": 1282,
      "vol": 1283,
      "wom": 1284,
      "wel": 1285,
      "water": 1286,
      "yet": 1287,
      "ination": 1288,
      "inmat": 1289,
      "erved": 1290,
      "erty": 1291,
      "anal": 1292,
      "anim": 1293,
      "ants": 1294,
      "another": 1295,
      "thes": 1296,
      "ons": 1297,
      "ont": 1298,
      "ony": 1299,
      "really": 1300,
      "reign": 1301,
      "refer": 1302,
      "review": 1303,
      "ators": 1304,
      "today": 1305,
      "toward": 1306,
      "tories": 1307,
      "ise": 1308,
      "ington": 1309,
      "order": 1310,
      "orning": 1311,
      "organ": 1312,
      "arri": 1313,
      "ese": 1314,
      "esman": 1315,
      "health": 1316,
      "ste": 1317,
      "stran": 1318,
      "stage": 1319,
      "ically": 1320,
      "ils": 1321,
      "ilar": 1322,
      "acted": 1323,
      "bet": 1324,
      "belie": 1325,
      "ade": 1326,
      "chan": 1327,
      "child": 1328,
      "ampa": 1329,
      "season": 1330,
      "ott": 1331,
      "forgot": 1332,
      "owed": 1333,
      "ola": 1334,
      "righ": 1335,
      "area": 1336,
      "utes": 1337,
      "having": 1338,
      "prom": 1339,
      "histor": 1340,
      "never": 1341,
      "next": 1342,
      "without": 1343,
      "abi": 1344,
      "ope": 1345,
      "sum": 1346,
      "conspir": 1347,
      "plan": 1348,
      "plac": 1349,
      "train": 1350,
      "front": 1351,
      "alled": 1352,
      "comment": 1353,
      "iffe": 1354,
      "wearing": 1355,
      "peace": 1356,
      "ket": 1357,
      "oscop": 1358,
      "cliffe": 1359,
      "resc": 1360,
      "whole": 1361,
      "author": 1362,
      "gram": 1363,
      "acting": 1364,
      "action": 1365,
      "plead": 1366,
      "lier": 1367,
      "playing": 1368,
      "teen": 1369,
      "program": 1370,
      "carried": 1371,
      "sib": 1372,
      "sible": 1373,
      "taken": 1374,
      "certain": 1375,
      "poin": 1376,
      "ize": 1377,
      "charged": 1378,
      "What": 1379,
      "paid": 1380,
      "paired": 1381,
      "assoc": 1382,
      "course": 1383,
      "interview": 1384,
      "anything": 1385,
      "getting": 1386,
      "donors": 1387,
      "dram": 1388,
      "minal": 1389,
      "posed": 1390,
      "istic": 1391,
      "direct": 1392,
      "scre": 1393,
      "scene": 1394,
      "preh": 1395,
      "signing": 1396,
      "condu": 1397,
      "2013": 1398,
      "wrote": 1399,
      "buy": 1400,
      "however": 1401,
      "job": 1402,
      "social": 1403,
      "Minister": 1404,
      "tweets": 1405,
      "complete": 1406,
      "hospitals": 1407,
      "respond": 1408,
      "Islam": 1409,
      "facts": 1410,
      "local": 1411,
      "remain": 1412,
      "strong": 1413,
      "added": 1414,
      "additional": 1415,
      "suspended": 1416,
      "officials": 1417,
      "recipients": 1418,
      "Palestinians": 1419,
      "incidents": 1420,
      "made": 1421,
      "northern": 1422,
      "example": 1423,
      "examination": 1424,
      "expect": 1425,
      "expected": 1426,
      "States": 1427,
      "Statute": 1428,
      "family": 1429,
      "families": 1430,
      "iety": 1431,
      "pitch": 1432,
      "sites": 1433,
      "property": 1434,
      "considered": 1435,
      "given": 1436,
      "killed": 1437,
      "similar": 1438,
      "legal": 1439,
      "control": 1440,
      "transfer": 1441,
      "claimed": 1442,
      "result": 1443,
      "daughter": 1444,
      "Goodell": 1445,
      "Radcliffe": 1446,
      "See": 1447,
      "born": 1448,
      "midfiel": 1449,
      "moment": 1450,
      "behavi": 1451,
      "spokesman": 1452,
      "exactly": 1453,
      "probably": 1454,
      "community": 1455,
      "defendant": 1456,
      "Falcons": 1457,
      "Austral": 1458,
      "According": 1459,
      "Ebola": 1460,
      "Kerry": 1461,
      "Kansas": 1462,
      "Maryland": 1463,
      "Twitter": 1464,
      "Washington": 1465,
      "York": 1466,
      "birth": 1467,
      "ninth": 1468,
      "person": 1469,
      "swap": 1470,
      "inmates": 1471,
      "believe": 1472,
      "forgotten": 1473,
      "rights": 1474,
      "midfielder": 1475,
      "($": 1476,
      "..": 1477,
      "12": 1478,
      "15": 1479,
      "18": 1480,
      "21": 1481,
      "35": 1482,
      "3r": 1483,
      "40": 1484,
      "50": 1485,
      "55": 1486,
      "60": 1487,
      "68": 1488,
      "70": 1489,
      "96": 1490,
      "Bo": 1491,
      "Bol": 1492,
      "Both": 1493,
      "Cam": 1494,
      "Col": 1495,
      "Cour": 1496,
      "Cup": 1497,
      "DP": 1498,
      "Dr": 1499,
      "En": 1500,
      "Eur": 1501,
      "Ho": 1502,
      "Hen": 1503,
      "His": 1504,
      "Hap": 1505,
      "Il": 1506,
      "Jo": 1507,
      "Jac": 1508,
      "Jose": 1509,
      "Judge": 1510,
      "La": 1511,
      "Later": 1512,
      "MI": 1513,
      "Ma": 1514,
      "My": 1515,
      "Mic": 1516,
      "Mur": 1517,
      "Miss": 1518,
      "Na": 1519,
      "ON": 1520,
      "Pac": 1521,
      "Pel": 1522,
      "Pap": 1523,
      "Park": 1524,
      "Prem": 1525,
      "Port": 1526,
      "Raw": 1527,
      "Rights": 1528,
      "Sp": 1529,
      "Spor": 1530,
      "Such": 1531,
      "Sec": 1532,
      "Tay": 1533,
      "Your": 1534,
      "aver": 1535,
      "bon": 1536,
      "bar": 1537,
      "bad": 1538,
      "based": 1539,
      "cat": 1540,
      "cou": 1541,
      "cation": 1542,
      "cast": 1543,
      "cells": 1544,
      "called": 1545,
      "dan": 1546,
      "dat": 1547,
      "dou": 1548,
      "del": 1549,
      "dam": 1550,
      "dri": 1551,
      "dif": 1552,
      "doc": 1553,
      "eas": 1554,
      "fl": 1555,
      "fic": 1556,
      "fel": 1557,
      "fur": 1558,
      "fell": 1559,
      "fast": 1560,
      "few": 1561,
      "find": 1562,
      "ffer": 1563,
      "gl": 1564,
      "gy": 1565,
      "gust": 1566,
      "gian": 1567,
      "gest": 1568,
      "great": 1569,
      "gave": 1570,
      "hn": 1571,
      "hor": 1572,
      "hic": 1573,
      "hurt": 1574,
      "ito": 1575,
      "ires": 1576,
      "iple": 1577,
      "iately": 1578,
      "jor": 1579,
      "ject": 1580,
      "lar": 1581,
      "les": 1582,
      "lant": 1583,
      "law": 1584,
      "lins": 1585,
      "light": 1586,
      "later": 1587,
      "mult": 1588,
      "morning": 1589,
      "ned": 1590,
      "nel": 1591,
      "ners": 1592,
      "none": 1593,
      "name": 1594,
      "night": 1595,
      "ob": 1596,
      "oid": 1597,
      "obs": 1598,
      "pur": 1599,
      "pick": 1600,
      "pul": 1601,
      "pack": 1602,
      "pass": 1603,
      "ring": 1604,
      "rul": 1605,
      "round": 1606,
      "rich": 1607,
      "sing": 1608,
      "sof": 1609,
      "sell": 1610,
      "sive": 1611,
      "squ": 1612,
      "same": 1613,
      "sco": 1614,
      "sort": 1615,
      "small": 1616,
      "tes": 1617,
      "tell": 1618,
      "test": 1619,
      "tely": 1620,
      "ues": 1621,
      "use": 1622,
      "usu": 1623,
      "ures": 1624,
      "uters": 1625,
      "utors": 1626,
      "var": 1627,
      "vir": 1628,
      "wn": 1629,
      "wall": 1630,
      "want": 1631,
      "xim": 1632,
      "ye": 1633,
      "yon": 1634,
      "yard": 1635,
      "iny": 1636,
      "init": 1637,
      "inches": 1638,
      "anes": 1639,
      "ansp": 1640,
      "anks": 1641,
      "thems": 1642,
      "requ": 1643,
      "reated": 1644,
      "edu": 1645,
      "ense": 1646,
      "took": 1647,
      "town": 1648,
      "alive": 1649,
      "along": 1650,
      "ital": 1651,
      "itun": 1652,
      "itive": 1653,
      "head": 1654,
      "hether": 1655,
      "ley": 1656,
      "stand": 1657,
      "stud": 1658,
      "ician": 1659,
      "ily": 1660,
      "ilding": 1661,
      "ilities": 1662,
      "ention": 1663,
      "acy": 1664,
      "bel": 1665,
      "became": 1666,
      "behind": 1667,
      "elves": 1668,
      "adv": 1669,
      "vehic": 1670,
      "tern": 1671,
      "terror": 1672,
      "among": 1673,
      "amount": 1674,
      "seen": 1675,
      "seum": 1676,
      "why": 1677,
      "lying": 1678,
      "ager": 1679,
      "olis": 1680,
      "urity": 1681,
      "irl": 1682,
      "immed": 1683,
      "utely": 1684,
      "happ": 1685,
      "promis": 1686,
      "proud": 1687,
      "spat": 1688,
      "spent": 1689,
      "spec": 1690,
      "neap": 1691,
      "absol": 1692,
      "abitun": 1693,
      "und": 1694,
      "unch": 1695,
      "unte": 1696,
      "dec": 1697,
      "defin": 1698,
      "determ": 1699,
      "such": 1700,
      "super": 1701,
      "concer": 1702,
      "plans": 1703,
      "trad": 1704,
      "true": 1705,
      "transp": 1706,
      "frustr": 1707,
      "allow": 1708,
      "coming": 1709,
      "commit": 1710,
      "committed": 1711,
      "comments": 1712,
      "ific": 1713,
      "managed": 1714,
      "osi": 1715,
      "osity": 1716,
      "osseum": 1717,
      "mother": 1718,
      "ending": 1719,
      "brok": 1720,
      "ular": 1721,
      "days": 1722,
      "grow": 1723,
      "iving": 1724,
      "ively": 1725,
      "activ": 1726,
      "actions": 1727,
      "Health": 1728,
      "memb": 1729,
      "owner": 1730,
      "These": 1731,
      "Thanks": 1732,
      "aff": 1733,
      "ction": 1734,
      "team": 1735,
      "progress": 1736,
      "cannot": 1737,
      "office": 1738,
      "makes": 1739,
      "carving": 1740,
      "access": 1741,
      "account": 1742,
      "ways": 1743,
      "taking": 1744,
      "tails": 1745,
      "goes": 1746,
      "mony": 1747,
      "monito": 1748,
      "partic": 1749,
      "partment": 1750,
      "firm": 1751,
      "ization": 1752,
      "surger": 1753,
      "charge": 1754,
      "rying": 1755,
      "recently": 1756,
      "wouldn": 1757,
      "interest": 1758,
      "casion": 1759,
      "lando": 1760,
      "landmark": 1761,
      "minister": 1762,
      "minutes": 1763,
      "died": 1764,
      "roy": 1765,
      "reading": 1766,
      "197": 1767,
      "198": 1768,
      "1996": 1769,
      "awn": 1770,
      "cky": 1771,
      "disc": 1772,
      "disgust": 1773,
      "rent": 1774,
      "All": 1775,
      "Almost": 1776,
      "count": 1777,
      "prelim": 1778,
      "ension": 1779,
      "presidential": 1780,
      "Assoc": 1781,
      "aked": 1782,
      "wrap": 1783,
      "wrong": 1784,
      "wants": 1785,
      "includ": 1786,
      "everyone": 1787,
      "Atlan": 1788,
      "Bethes": 1789,
      "building": 1790,
      "film": 1791,
      "filed": 1792,
      "sides": 1793,
      "ysis": 1794,
      "months": 1795,
      "Minneap": 1796,
      "tweeted": 1797,
      "completely": 1798,
      "clubs": 1799,
      "matching": 1800,
      "Monk": 1801,
      "bling": 1802,
      "anned": 1803,
      "release": 1804,
      "suspension": 1805,
      "official": 1806,
      "France": 1807,
      "Francis": 1808,
      "Phil": 1809,
      "full": 1810,
      "jails": 1811,
      "talk": 1812,
      "treaty": 1813,
      "formation": 1814,
      "include": 1815,
      "Department": 1816,
      "Reuters": 1817,
      "fighting": 1818,
      "names": 1819,
      "others": 1820,
      "salary": 1821,
      "anging": 1822,
      "started": 1823,
      "meanwhile": 1824,
      "quickly": 1825,
      "colonoscop": 1826,
      "surviv": 1827,
      "pairs": 1828,
      "feeling": 1829,
      "describe": 1830,
      "250": 1831,
      "Foreign": 1832,
      "Orlando": 1833,
      "falling": 1834,
      "higher": 1835,
      "risk": 1836,
      "ticket": 1837,
      "attracting": 1838,
      "accept": 1839,
      "accepted": 1840,
      "territories": 1841,
      "chester": 1842,
      "opposite": 1843,
      "collapsed": 1844,
      "Holmes": 1845,
      "Manchester": 1846,
      "citiz": 1847,
      "human": 1848,
      "milit": 1849,
      "vised": 1850,
      "striker": 1851,
      "protective": 1852,
      "apparently": 1853,
      "shoot": 1854,
      "costs": 1855,
      "reportedly": 1856,
      "continu": 1857,
      "physician": 1858,
      "generosity": 1859,
      "development": 1860,
      "African": 1861,
      "Gabby": 1862,
      "McIl": 1863,
      "Scott": 1864,
      "volunte": 1865,
      "women": 1866,
      "arrived": 1867,
      "children": 1868,
      "historic": 1869,
      "summary": 1870,
      "conspirators": 1871,
      "training": 1872,
      "authorities": 1873,
      "associated": 1874,
      "drama": 1875,
      "conduct": 1876,
      "behavior": 1877,
      "3rd": 1878,
      "Colosseum": 1879,
      "Court": 1880,
      "Europe": 1881,
      "Happy": 1882,
      "John": 1883,
      "Jacobs": 1884,
      "Murabitun": 1885,
      "Naib": 1886,
      "Pacific": 1887,
      "Pelosi": 1888,
      "Papiss": 1889,
      "Premier": 1890,
      "Rawlins": 1891,
      "Sporting": 1892,
      "Taylor": 1893,
      "couple": 1894,
      "damage": 1895,
      "further": 1896,
      "pickup": 1897,
      "rules": 1898,
      "soft": 1899,
      "scored": 1900,
      "usually": 1901,
      "various": 1902,
      "themselves": 1903,
      "immediately": 1904,
      "promising": 1905,
      "absolutely": 1906,
      "determine": 1907,
      "frustration": 1908,
      "members": 1909,
      "monitored": 1910,
      "disgusting": 1911,
      "preliminary": 1912,
      "Atlanta": 1913,
      "Bethesda": 1914,
      "Minneapolis": 1915,
      "Francisco": 1916,
      "McIlroy": 1917,
      "volunteers": 1918,
      "!\"": 1919,
      "\"(": 1920,
      ",'": 1921,
      ".'": 1922,
      "13": 1923,
      "17": 1924,
      "31": 1925,
      "38": 1926,
      "71": 1927,
      "AP": 1928,
      "Ah": 1929,
      "Ak": 1930,
      "Au": 1931,
      "Apr": 1932,
      "BC": 1933,
      "Ber": 1934,
      "Bar": 1935,
      "Bel": 1936,
      "Bad": 1937,
      "Bam": 1938,
      "Bri": 1939,
      "Bill": 1940,
      "Bins": 1941,
      "Bra": 1942,
      "Blan": 1943,
      "Com": 1944,
      "Cri": 1945,
      "Camp": 1946,
      "Curt": 1947,
      "Ds": 1948,
      "Dan": 1949,
      "Don": 1950,
      "Den": 1951,
      "Doc": 1952,
      "Dade": 1953,
      "ES": 1954,
      "Eye": 1955,
      "FO": 1956,
      "Fe": 1957,
      "For": 1958,
      "Far": 1959,
      "Found": 1960,
      "Flor": 1961,
      "Fabi": 1962,
      "Gu": 1963,
      "Girl": 1964,
      "Her": 1965,
      "Hit": 1966,
      "Ham": 1967,
      "Hart": 1968,
      "Hink": 1969,
      "Jer": 1970,
      "Jam": 1971,
      "Jos": 1972,
      "Just": 1973,
      "Jav": 1974,
      "Ken": 1975,
      "Lan": 1976,
      "Lon": 1977,
      "Lou": 1978,
      "Long": 1979,
      "Look": 1980,
      "Liver": 1981,
      "MT": 1982,
      "Mar": 1983,
      "May": 1984,
      "Match": 1985,
      "Nor": 1986,
      "Nav": 1987,
      "Never": 1988,
      "Net": 1989,
      "Nations": 1990,
      "Over": 1991,
      "PN": 1992,
      "Pa": 1993,
      "Pr": 1994,
      "Pre": 1995,
      "Pho": 1996,
      "Pro": 1997,
      "Press": 1998,
      "Res": 1999,
      "Run": 2000,
      "Rich": 2001,
      "Rev": 2002,
      "Ross": 2003,
      "SA": 2004,
      "Ser": 2005,
      "Sal": 2006,
      "Sha": 2007,
      "Some": 2008,
      "Sier": 2009,
      "To": 2010,
      "Tu": 2011,
      "Tot": 2012,
      "Tour": 2013,
      "Too": 2014,
      "Two": 2015,
      "Tony": 2016,
      "Tampa": 2017,
      "UK": 2018,
      "USA": 2019,
      "Ver": 2020,
      "Vill": 2021,
      "Wil": 2022,
      "Wel": 2023,
      "West": 2024,
      "az": 2025,
      "athe": 2026,
      "ais": 2027,
      "ait": 2028,
      "air": 2029,
      "aos": 2030,
      "ba": 2031,
      "bi": 2032,
      "bin": 2033,
      "ban": 2034,
      "best": 2035,
      "bound": 2036,
      "bus": 2037,
      "batt": 2038,
      "cor": 2039,
      "cent": 2040,
      "cow": 2041,
      "cere": 2042,
      "cut": 2043,
      "card": 2044,
      "cess": 2045,
      "cav": 2046,
      "center": 2047,
      "du": 2048,
      "dom": 2049,
      "dad": 2050,
      "dance": 2051,
      "dict": 2052,
      "dawn": 2053,
      "eu": 2054,
      "ean": 2055,
      "eter": 2056,
      "eigh": 2057,
      "eak": 2058,
      "far": 2059,
      "fig": 2060,
      "fain": 2061,
      "fight": 2062,
      "freed": 2063,
      "fold": 2064,
      "fair": 2065,
      "gk": 2066,
      "gol": 2067,
      "gif": 2068,
      "gia": 2069,
      "gree": 2070,
      "gical": 2071,
      "har": 2072,
      "hand": 2073,
      "here": 2074,
      "hour": 2075,
      "hran": 2076,
      "hide": 2077,
      "hous": 2078,
      "hip": 2079,
      "hold": 2080,
      "hbar": 2081,
      "ire": 2082,
      "iate": 2083,
      "iber": 2084,
      "ible": 2085,
      "jad": 2086,
      "jur": 2087,
      "jour": 2088,
      "jaw": 2089,
      "ki": 2090,
      "kn": 2091,
      "kely": 2092,
      "knew": 2093,
      "ls": 2094,
      "ler": 2095,
      "lat": 2096,
      "lis": 2097,
      "live": 2098,
      "list": 2099,
      "mal": 2100,
      "mic": 2101,
      "mag": 2102,
      "main": 2103,
      "mind": 2104,
      "might": 2105,
      "mix": 2106,
      "nu": 2107,
      "noc": 2108,
      "nation": 2109,
      "nine": 2110,
      "nice": 2111,
      "naked": 2112,
      "oy": 2113,
      "oke": 2114,
      "pen": 2115,
      "pal": 2116,
      "ping": 2117,
      "par": 2118,
      "pay": 2119,
      "put": 2120,
      "pace": 2121,
      "pho": 2122,
      "ric": 2123,
      "ram": 2124,
      "row": 2125,
      "rol": 2126,
      "rap": 2127,
      "ride": 2128,
      "ross": 2129,
      "san": 2130,
      "sto": 2131,
      "ses": 2132,
      "sle": 2133,
      "sac": 2134,
      "sion": 2135,
      "sha": 2136,
      "sess": 2137,
      "skill": 2138,
      "ti": 2139,
      "tar": 2140,
      "tions": 2141,
      "tled": 2142,
      "tied": 2143,
      "tured": 2144,
      "treated": 2145,
      "uers": 2146,
      "ually": 2147,
      "utor": 2148,
      "uries": 2149,
      "uced": 2150,
      "val": 2151,
      "vic": 2152,
      "vil": 2153,
      "via": 2154,
      "vice": 2155,
      "wound": 2156,
      "wages": 2157,
      "whether": 2158,
      "wait": 2159,
      "ya": 2160,
      "yards": 2161,
      "ze": 2162,
      "zil": 2163,
      "ino": 2164,
      "inic": 2165,
      "inste": 2166,
      "information": 2167,
      "innoc": 2168,
      "era": 2169,
      "ered": 2170,
      "anish": 2171,
      "online": 2172,
      "ref": 2173,
      "repe": 2174,
      "react": 2175,
      "remin": 2176,
      "recomm": 2177,
      "reacted": 2178,
      "reclaimed": 2179,
      "rebel": 2180,
      "ates": 2181,
      "attem": 2182,
      "eding": 2183,
      "edge": 2184,
      "edul": 2185,
      "ening": 2186,
      "enough": 2187,
      "encour": 2188,
      "enix": 2189,
      "enced": 2190,
      "ensible": 2191,
      "tos": 2192,
      "touch": 2193,
      "isc": 2194,
      "ism": 2195,
      "isn": 2196,
      "issi": 2197,
      "isters": 2198,
      "istry": 2199,
      "isdict": 2200,
      "isvil": 2201,
      "aled": 2202,
      "alke": 2203,
      "altru": 2204,
      "alert": 2205,
      "always": 2206,
      "orts": 2207,
      "outh": 2208,
      "outs": 2209,
      "arter": 2210,
      "aries": 2211,
      "arms": 2212,
      "arily": 2213,
      "escap": 2214,
      "aster": 2215,
      "itan": 2216,
      "itely": 2217,
      "itable": 2218,
      "itution": 2219,
      "ida": 2220,
      "ids": 2221,
      "idence": 2222,
      "heat": 2223,
      "held": 2224,
      "leag": 2225,
      "lebr": 2226,
      "sty": 2227,
      "stay": 2228,
      "stag": 2229,
      "stree": 2230,
      "start": 2231,
      "stem": 2232,
      "ica": 2233,
      "ics": 2234,
      "ented": 2235,
      "enters": 2236,
      "ential": 2237,
      "aces": 2238,
      "acts": 2239,
      "acqu": 2240,
      "actor": 2241,
      "across": 2242,
      "ayers": 2243,
      "behave": 2244,
      "begin": 2245,
      "began": 2246,
      "beyon": 2247,
      "elf": 2248,
      "eless": 2249,
      "elph": 2250,
      "ionable": 2251,
      "ador": 2252,
      "admiss": 2253,
      "adelph": 2254,
      "veill": 2255,
      "chann": 2256,
      "changing": 2257,
      "chaos": 2258,
      "aming": 2259,
      "sey": 2260,
      "sever": 2261,
      "sequ": 2262,
      "seized": 2263,
      "section": 2264,
      "otball": 2265,
      "forces": 2266,
      "forward": 2267,
      "agent": 2268,
      "agers": 2269,
      "aggr": 2270,
      "oles": 2271,
      "olve": 2272,
      "olution": 2273,
      "olog": 2274,
      "riel": 2275,
      "riate": 2276,
      "rible": 2277,
      "ared": 2278,
      "areg": 2279,
      "illness": 2280,
      "iron": 2281,
      "wasn": 2282,
      "import": 2283,
      "utiny": 2284,
      "hael": 2285,
      "price": 2286,
      "prayers": 2287,
      "ither": 2288,
      "spap": 2289,
      "spread": 2290,
      "sport": 2291,
      "speak": 2292,
      "sports": 2293,
      "net": 2294,
      "near": 2295,
      "necess": 2296,
      "within": 2297,
      "ability": 2298,
      "oper": 2299,
      "options": 2300,
      "deter": 2301,
      "dece": 2302,
      "deck": 2303,
      "decis": 2304,
      "details": 2305,
      "degree": 2306,
      "aph": 2307,
      "appro": 2308,
      "approp": 2309,
      "appoin": 2310,
      "ounts": 2311,
      "succ": 2312,
      "sulate": 2313,
      "suffer": 2314,
      "outing": 2315,
      "consc": 2316,
      "confront": 2317,
      "ceed": 2318,
      "cember": 2319,
      "celebr": 2320,
      "place": 2321,
      "planned": 2322,
      "ploy": 2323,
      "trol": 2324,
      "track": 2325,
      "comed": 2326,
      "comes": 2327,
      "compe": 2328,
      "common": 2329,
      "compreh": 2330,
      "ify": 2331,
      "gets": 2332,
      "ocate": 2333,
      "occur": 2334,
      "occasion": 2335,
      "key": 2336,
      "kets": 2337,
      "movi": 2338,
      "clash": 2339,
      "exp": 2340,
      "expl": 2341,
      "extr": 2342,
      "expres": 2343,
      "exten": 2344,
      "exposed": 2345,
      "ghes": 2346,
      "show": 2347,
      "showed": 2348,
      "resolve": 2349,
      "ends": 2350,
      "endances": 2351,
      "brick": 2352,
      "bruary": 2353,
      "brave": 2354,
      "brask": 2355,
      "broad": 2356,
      "ully": 2357,
      "ulate": 2358,
      "audi": 2359,
      "earlier": 2360,
      "grat": 2361,
      "grade": 2362,
      "graph": 2363,
      "ives": 2364,
      "ivil": 2365,
      "range": 2366,
      "Star": 2367,
      "Steven": 2368,
      "worth": 2369,
      "worried": 2370,
      "inejad": 2371,
      "means": 2372,
      "meet": 2373,
      "member": 2374,
      "owners": 2375,
      "reds": 2376,
      "reduced": 2377,
      "ctions": 2378,
      "likely": 2379,
      "ported": 2380,
      "porarily": 2381,
      "timid": 2382,
      "played": 2383,
      "tele": 2384,
      "usion": 2385,
      "proble": 2386,
      "provide": 2387,
      "proceed": 2388,
      "qual": 2389,
      "quest": 2390,
      "quarter": 2391,
      "making": 2392,
      "accounts": 2393,
      "aving": 2394,
      "avated": 2395,
      "avoid": 2396,
      "someone": 2397,
      "Any": 2398,
      "Angk": 2399,
      "hero": 2400,
      "perform": 2401,
      "permission": 2402,
      "box": 2403,
      "board": 2404,
      "takes": 2405,
      "ubble": 2406,
      "goals": 2407,
      "umped": 2408,
      "vial": 2409,
      "vious": 2410,
      "couldn": 2411,
      "himself": 2412,
      "pool": 2413,
      "indust": 2414,
      "Leone": 2415,
      "izing": 2416,
      "pressure": 2417,
      "surpris": 2418,
      "surveill": 2419,
      "itself": 2420,
      "newspap": 2421,
      "When": 2422,
      "Where": 2423,
      "While": 2424,
      "recent": 2425,
      "assert": 2426,
      "assador": 2427,
      "didn": 2428,
      "cash": 2429,
      "cases": 2430,
      "drop": 2431,
      "drink": 2432,
      "drais": 2433,
      "evidence": 2434,
      "feet": 2435,
      "guided": 2436,
      "minute": 2437,
      "maybe": 2438,
      "possib": 2439,
      "positive": 2440,
      "criminal": 2441,
      "die": 2442,
      "hole": 2443,
      "room": 2444,
      "robes": 2445,
      "scr": 2446,
      "ished": 2447,
      "ishment": 2448,
      "aware": 2449,
      "cks": 2450,
      "disappoin": 2451,
      "design": 2452,
      "deserved": 2453,
      "loving": 2454,
      "tenham": 2455,
      "spital": 2456,
      "spitting": 2457,
      "works": 2458,
      "worker": 2459,
      "working": 2460,
      "News": 2461,
      "Newz": 2462,
      "reports": 2463,
      "aching": 2464,
      "contact": 2465,
      "counter": 2466,
      "fire": 2467,
      "fired": 2468,
      "gina": 2469,
      "phone": 2470,
      "previous": 2471,
      "signings": 2472,
      "tourist": 2473,
      "condition": 2474,
      "2015": 2475,
      "kidneys": 2476,
      "ako": 2477,
      "genet": 2478,
      "gency": 2479,
      "ushed": 2480,
      "writ": 2481,
      "wanted": 2482,
      "wanger": 2483,
      "restric": 2484,
      "restitution": 2485,
      "settled": 2486,
      "everybody": 2487,
      "Atlant": 2488,
      "Before": 2489,
      "Becky": 2490,
      "buried": 2491,
      "final": 2492,
      "finish": 2493,
      "films": 2494,
      "jovial": 2495,
      "missing": 2496,
      "soccer": 2497,
      "society": 2498,
      "security": 2499,
      "seeking": 2500,
      "mostly": 2501,
      "friends": 2502,
      "tweet": 2503,
      "receive": 2504,
      "receiving": 2505,
      "complex": 2506,
      "2002": 2507,
      "2007": 2508,
      "response": 2509,
      "responsib": 2510,
      "Chene": 2511,
      "Tehran": 2512,
      "black": 2513,
      "biggest": 2514,
      "capital": 2515,
      "ects": 2516,
      "facility": 2517,
      "turns": 2518,
      "turned": 2519,
      "younger": 2520,
      "annah": 2521,
      "aseball": 2522,
      "suspects": 2523,
      "bodia": 2524,
      "Even": 2525,
      "Peter": 2526,
      "looks": 2527,
      "looking": 2528,
      "madinejad": 2529,
      "north": 2530,
      "sentence": 2531,
      "sentences": 2532,
      "schedul": 2533,
      "talented": 2534,
      "retary": 2535,
      "formal": 2536,
      "needs": 2537,
      "posts": 2538,
      "December": 2539,
      "Regina": 2540,
      "fights": 2541,
      "fighters": 2542,
      "hammad": 2543,
      "named": 2544,
      "rectal": 2545,
      "urses": 2546,
      "considerably": 2547,
      "survive": 2548,
      "survived": 2549,
      "describes": 2550,
      "described": 2551,
      "allegedly": 2552,
      "Football": 2553,
      "Most": 2554,
      "Mohammad": 2555,
      "Order": 2556,
      "bulances": 2557,
      "checks": 2558,
      "ppi": 2559,
      "syste": 2560,
      "system": 2561,
      "series": 2562,
      "serious": 2563,
      "region": 2564,
      "regards": 2565,
      "related": 2566,
      "letter": 2567,
      "opened": 2568,
      "opening": 2569,
      "collapsing": 2570,
      "footballers": 2571,
      "daughters": 2572,
      "Adam": 2573,
      "Adams": 2574,
      "Arabi": 2575,
      "Malian": 2576,
      "Malians": 2577,
      "following": 2578,
      "games": 2579,
      "gamble": 2580,
      "iplied": 2581,
      "limited": 2582,
      "message": 2583,
      "messages": 2584,
      "punishment": 2585,
      "video": 2586,
      "injured": 2587,
      "injuries": 2588,
      "issue": 2589,
      "issues": 2590,
      "arrested": 2591,
      "protect": 2592,
      "deaths": 2593,
      "subst": 2594,
      "keeping": 2595,
      "experience": 2596,
      "experienced": 2597,
      "temporarily": 2598,
      "prosecutors": 2599,
      "college": 2600,
      "collective": 2601,
      "International": 2602,
      "Internet": 2603,
      "weekend": 2604,
      "continue": 2605,
      "prisoners": 2606,
      "Canad": 2607,
      "Early": 2608,
      "Earlier": 2609,
      "Human": 2610,
      "Hughes": 2611,
      "Nebrask": 2612,
      "Party": 2613,
      "Shiple": 2614,
      "Soccer": 2615,
      "Society": 2616,
      "break": 2617,
      "current": 2618,
      "covered": 2619,
      "covering": 2620,
      "fundrais": 2621,
      "launch": 2622,
      "prior": 2623,
      "rule": 2624,
      "trial": 2625,
      "welcome": 2626,
      "welcomed": 2627,
      "analy": 2628,
      "analysis": 2629,
      "animal": 2630,
      "animals": 2631,
      "organization": 2632,
      "stranger": 2633,
      "better": 2634,
      "change": 2635,
      "prompted": 2636,
      "planning": 2637,
      "placing": 2638,
      "rescue": 2639,
      "rescuers": 2640,
      "teenagers": 2641,
      "screaming": 2642,
      "buying": 2643,
      "Islamic": 2644,
      "Islamist": 2645,
      "Australian": 2646,
      "Australians": 2647,
      "birthday": 2648,
      "Bolton": 2649,
      "Cambodia": 2650,
      "DPs": 2651,
      "Engl": 2652,
      "Hospital": 2653,
      "Henry": 2654,
      "Major": 2655,
      "Michael": 2656,
      "Mississi": 2657,
      "Spanish": 2658,
      "Secretary": 2659,
      "danger": 2660,
      "data": 2661,
      "doub": 2662,
      "driving": 2663,
      "differ": 2664,
      "doctor": 2665,
      "felt": 2666,
      "greater": 2667,
      "horrible": 2668,
      "multiplied": 2669,
      "nels": 2670,
      "square": 2671,
      "tests": 2672,
      "telling": 2673,
      "ximately": 2674,
      "initials": 2675,
      "anesthe": 2676,
      "requires": 2677,
      "education": 2678,
      "student": 2679,
      "advocate": 2680,
      "vehicle": 2681,
      "undreds": 2682,
      "decided": 2683,
      "definitely": 2684,
      "supervised": 2685,
      "transplan": 2686,
      "broken": 2687,
      "ularly": 2688,
      "progressed": 2689,
      "accountability": 2690,
      "particularly": 2691,
      "surgeries": 2692,
      "1977": 2693,
      "countries": 2694,
      "Associated": 2695,
      "included": 2696,
      "Philadelph": 2697,
      "colonoscopy": 2698,
      "survival": 2699,
      "acceptable": 2700,
      "citizens": 2701,
      "militants": 2702,
      "shooting": 2703,
      "continued": 2704,
      "3rdEye": 2705,
      "Ahmadinejad": 2706,
      "Akhbar": 2707,
      "Author": 2708,
      "April": 2709,
      "Belgian": 2710,
      "Bamako": 2711,
      "Billboard": 2712,
      "Binswanger": 2713,
      "Brazil": 2714,
      "Blank": 2715,
      "Criminal": 2716,
      "Daniel": 2717,
      "Denver": 2718,
      "Doctors": 2719,
      "ESPN": 2720,
      "FOX": 2721,
      "February": 2722,
      "Farid": 2723,
      "Foundation": 2724,
      "Florida": 2725,
      "Fabius": 2726,
      "James": 2727,
      "Javad": 2728,
      "Kennels": 2729,
      "Lane": 2730,
      "London": 2731,
      "Louisvil": 2732,
      "Liverpool": 2733,
      "Naval": 2734,
      "Paul": 2735,
      "Prince": 2736,
      "Phoenix": 2737,
      "Prosec": 2738,
      "Revolution": 2739,
      "Rossell": 2740,
      "Salve": 2741,
      "Sierra": 2742,
      "Tuareg": 2743,
      "Tottenham": 2744,
      "Toobin": 2745,
      "Vermes": 2746,
      "Villa": 2747,
      "bank": 2748,
      "boundaries": 2749,
      "battled": 2750,
      "ceremony": 2751,
      "euthan": 2752,
      "eighth": 2753,
      "fainting": 2754,
      "freedom": 2755,
      "folded": 2756,
      "gift": 2757,
      "hours": 2758,
      "housed": 2759,
      "jurisdict": 2760,
      "journey": 2761,
      "known": 2762,
      "latest": 2763,
      "penal": 2764,
      "pale": 2765,
      "photos": 2766,
      "sanctions": 2767,
      "stood": 2768,
      "sacred": 2769,
      "sessions": 2770,
      "skills": 2771,
      "value": 2772,
      "victim": 2773,
      "waiting": 2774,
      "instead": 2775,
      "attemp": 2776,
      "altruistic": 2777,
      "escape": 2778,
      "leagues": 2779,
      "stayed": 2780,
      "beyond": 2781,
      "admissions": 2782,
      "channel": 2783,
      "aggravated": 2784,
      "necessary": 2785,
      "deceased": 2786,
      "decision": 2787,
      "approximately": 2788,
      "appropriate": 2789,
      "success": 2790,
      "conscious": 2791,
      "occurred": 2792,
      "movie": 2793,
      "problems": 2794,
      "quarterback": 2795,
      "Angkor": 2796,
      "surveillance": 2797,
      "newspaper": 2798,
      "Atlantic": 2799,
      "Cheney": 2800,
      "scheduled": 2801,
      "systems": 2802,
      "Arabiya": 2803,
      "Nebraska": 2804,
      "Shipley": 2805,
      "fundraising": 2806,
      "English": 2807,
      "Mississippi": 2808,
      "Philadelphia": 2809,
      "3rdEyeGirl": 2810,
      "Louisville": 2811,
      "jurisdiction": 2812,
      "!!": 2813,
      "(@": 2814,
      ")\"": 2815,
      "),": 2816,
      "),\"": 2817,
      "-,": 2818,
      ".,": 2819,
      "14": 2820,
      "100": 2821,
      "130": 2822,
      "140": 2823,
      "22": 2824,
      "26": 2825,
      "27": 2826,
      "28": 2827,
      "29": 2828,
      "32": 2829,
      "34": 2830,
      "36": 2831,
      "41": 2832,
      "42": 2833,
      "45": 2834,
      "53": 2835,
      "54": 2836,
      "56": 2837,
      "59": 2838,
      "61": 2839,
      "6p": 2840,
      "6th": 2841,
      "700": 2842,
      "90": 2843,
      "AQ": 2844,
      "AS": 2845,
      "Am": 2846,
      "Aid": 2847,
      "Air": 2848,
      "Aul": 2849,
      "Act": 2850,
      "Adid": 2851,
      "Amb": 2852,
      "AMI": 2853,
      "ABC": 2854,
      "BA": 2855,
      "BI": 2856,
      "BT": 2857,
      "Ben": 2858,
      "Bay": 2859,
      "Bag": 2860,
      "Baf": 2861,
      "Bub": 2862,
      "Bens": 2863,
      "Barry": 2864,
      "Bony": 2865,
      "BBC": 2866,
      "Balke": 2867,
      "Baseball": 2868,
      "Co": 2869,
      "Cad": 2870,
      "Cop": 2871,
      "Count": 2872,
      "CDs": 2873,
      "Centers": 2874,
      "Civil": 2875,
      "DC": 2876,
      "DV": 2877,
      "Di": 2878,
      "Dis": 2879,
      "Des": 2880,
      "Day": 2881,
      "Dick": 2882,
      "Dail": 2883,
      "During": 2884,
      "Dipl": 2885,
      "Dog": 2886,
      "Driver": 2887,
      "Dise": 2888,
      "DON": 2889,
      "E1": 2890,
      "El": 2891,
      "Ex": 2892,
      "East": 2893,
      "Equ": 2894,
      "Edi": 2895,
      "Each": 2896,
      "Emb": 2897,
      "Egy": 2898,
      "EAP": 2899,
      "EMT": 2900,
      "Either": 2901,
      "FA": 2902,
      "FC": 2903,
      "Fa": 2904,
      "Fin": 2905,
      "Fat": 2906,
      "Fed": 2907,
      "Fom": 2908,
      "Fab": 2909,
      "Four": 2910,
      "Five": 2911,
      "Figh": 2912,
      "Fred": 2913,
      "Find": 2914,
      "Father": 2915,
      "Follow": 2916,
      "Fund": 2917,
      "Fusion": 2918,
      "FBI": 2919,
      "GA": 2920,
      "GC": 2921,
      "GO": 2922,
      "GT": 2923,
      "Ge": 2924,
      "Go": 2925,
      "Gen": 2926,
      "Gil": 2927,
      "Gam": 2928,
      "Gran": 2929,
      "Gover": 2930,
      "Gary": 2931,
      "Giz": 2932,
      "Grid": 2933,
      "Garry": 2934,
      "GMT": 2935,
      "Gaz": 2936,
      "HI": 2937,
      "Hon": 2938,
      "Had": 2939,
      "Hop": 2940,
      "Home": 2941,
      "Hass": 2942,
      "Hague": 2943,
      "Hud": 2944,
      "Hash": 2945,
      "Hamp": 2946,
      "Hannah": 2947,
      "Hundreds": 2948,
      "II": 2949,
      "IM": 2950,
      "IS": 2951,
      "Ir": 2952,
      "Imag": 2953,
      "JB": 2954,
      "Ju": 2955,
      "Jar": 2956,
      "Jack": 2957,
      "Jew": 2958,
      "Jef": 2959,
      "Jean": 2960,
      "Ke": 2961,
      "Kh": 2962,
      "Kat": 2963,
      "Kar": 2964,
      "Kent": 2965,
      "Kare": 2966,
      "Kun": 2967,
      "Kate": 2968,
      "Khad": 2969,
      "Kak": 2970,
      "Kipl": 2971,
      "KGO": 2972,
      "Lj": 2973,
      "Lis": 2974,
      "Les": 2975,
      "Lau": 2976,
      "Last": 2977,
      "Lind": 2978,
      "Lamp": 2979,
      "LON": 2980,
      "Lyon": 2981,
      "Liber": 2982,
      "LIS": 2983,
      "Mr": 2984,
      "Mu": 2985,
      "Mid": 2986,
      "Ment": 2987,
      "Mel": 2988,
      "Mam": 2989,
      "Mag": 2990,
      "Mos": 2991,
      "Mach": 2992,
      "Mah": 2993,
      "Morning": 2994,
      "Mean": 2995,
      "Mutiny": 2996,
      "Nan": 2997,
      "Now": 2998,
      "Niel": 2999,
      "NBA": 3000,
      "NGT": 3001,
      "Oc": 3002,
      "Of": 3003,
      "Oh": 3004,
      "Oz": 3005,
      "Ori": 3006,
      "Other": 3007,
      "Oma": 3008,
      "OLIS": 3009,
      "Pl": 3010,
      "Pu": 3011,
      "Py": 3012,
      "Per": 3013,
      "Pat": 3014,
      "Pen": 3015,
      "Par": 3016,
      "Pic": 3017,
      "Pol": 3018,
      "Pri": 3019,
      "Phel": 3020,
      "Purn": 3021,
      "PGA": 3022,
      "Qa": 3023,
      "Qu": 3024,
      "Ri": 3025,
      "Ro": 3026,
      "Ru": 3027,
      "Ry": 3028,
      "Ror": 3029,
      "Rou": 3030,
      "Rid": 3031,
      "Rom": 3032,
      "Ros": 3033,
      "Rud": 3034,
      "River": 3035,
      "Road": 3036,
      "SU": 3037,
      "Sk": 3038,
      "Sl": 3039,
      "Sar": 3040,
      "Sand": 3041,
      "Say": 3042,
      "Sam": 3043,
      "Sol": 3044,
      "Sun": 3045,
      "Sav": 3046,
      "Site": 3047,
      "Sum": 3048,
      "Spart": 3049,
      "Sep": 3050,
      "Sph": 3051,
      "Since": 3052,
      "Sport": 3053,
      "Spit": 3054,
      "Swit": 3055,
      "Small": 3056,
      "Tr": 3057,
      "Ty": 3058,
      "Tou": 3059,
      "Tri": 3060,
      "Tex": 3061,
      "Tub": 3062,
      "Vas": 3063,
      "Vent": 3064,
      "Viv": 3065,
      "Vice": 3066,
      "Veter": 3067,
      "Wat": 3068,
      "Wal": 3069,
      "Way": 3070,
      "Will": 3071,
      "Whether": 3072,
      "WAS": 3073,
      "WGC": 3074,
      "WSU": 3075,
      "Yan": 3076,
      "Yes": 3077,
      "Zully": 3078,
      "aj": 3079,
      "ax": 3080,
      "aid": 3081,
      "aur": 3082,
      "aha": 3083,
      "aust": 3084,
      "aution": 3085,
      "ahead": 3086,
      "bal": 3087,
      "bing": 3088,
      "bas": 3089,
      "band": 3090,
      "bid": 3091,
      "bic": 3092,
      "bag": 3093,
      "bow": 3094,
      "bri": 3095,
      "bur": 3096,
      "bate": 3097,
      "bans": 3098,
      "biz": 3099,
      "bud": 3100,
      "blo": 3101,
      "breed": 3102,
      "billion": 3103,
      "bright": 3104,
      "banned": 3105,
      "bubble": 3106,
      "bassador": 3107,
      "baseball": 3108,
      "cing": 3109,
      "cel": 3110,
      "cam": 3111,
      "cir": 3112,
      "cell": 3113,
      "cree": 3114,
      "cup": 3115,
      "cry": 3116,
      "creat": 3117,
      "coup": 3118,
      "crest": 3119,
      "cret": 3120,
      "camp": 3121,
      "cially": 3122,
      "campa": 3123,
      "created": 3124,
      "crying": 3125,
      "culate": 3126,
      "civil": 3127,
      "dw": 3128,
      "dy": 3129,
      "ded": 3130,
      "dit": 3131,
      "dle": 3132,
      "dir": 3133,
      "dig": 3134,
      "date": 3135,
      "dust": 3136,
      "dell": 3137,
      "div": 3138,
      "dated": 3139,
      "dub": 3140,
      "dial": 3141,
      "dist": 3142,
      "dark": 3143,
      "dang": 3144,
      "dden": 3145,
      "driver": 3146,
      "ey": 3147,
      "ele": 3148,
      "eve": 3149,
      "eur": 3150,
      "etim": 3151,
      "eper": 3152,
      "emer": 3153,
      "ease": 3154,
      "eye": 3155,
      "eager": 3156,
      "equal": 3157,
      "fan": 3158,
      "fre": 3159,
      "fat": 3160,
      "fit": 3161,
      "fill": 3162,
      "fut": 3163,
      "foc": 3164,
      "fli": 3165,
      "fav": 3166,
      "fever": 3167,
      "fame": 3168,
      "fail": 3169,
      "fash": 3170,
      "fang": 3171,
      "fict": 3172,
      "ffic": 3173,
      "fisc": 3174,
      "gs": 3175,
      "gth": 3176,
      "ging": 3177,
      "gar": 3178,
      "gle": 3179,
      "gent": 3180,
      "gur": 3181,
      "gers": 3182,
      "gos": 3183,
      "gain": 3184,
      "gue": 3185,
      "gber": 3186,
      "gland": 3187,
      "gthen": 3188,
      "gating": 3189,
      "girl": 3190,
      "g38": 3191,
      "hi": 3192,
      "hre": 3193,
      "hed": 3194,
      "hen": 3195,
      "hom": 3196,
      "hri": 3197,
      "hies": 3198,
      "hover": 3199,
      "hum": 3200,
      "hatt": 3201,
      "hope": 3202,
      "hanging": 3203,
      "holes": 3204,
      "hundreds": 3205,
      "ik": 3206,
      "io": 3207,
      "ithe": 3208,
      "ien": 3209,
      "ior": 3210,
      "iac": 3211,
      "iation": 3212,
      "iest": 3213,
      "ihad": 3214,
      "ium": 3215,
      "ief": 3216,
      "iations": 3217,
      "iams": 3218,
      "jac": 3219,
      "jam": 3220,
      "joc": 3221,
      "jok": 3222,
      "jumped": 3223,
      "jihad": 3224,
      "ked": 3225,
      "kies": 3226,
      "lv": 3227,
      "len": 3228,
      "lid": 3229,
      "lad": 3230,
      "lot": 3231,
      "lab": 3232,
      "lun": 3233,
      "ligh": 3234,
      "lies": 3235,
      "lack": 3236,
      "lists": 3237,
      "lately": 3238,
      "loss": 3239,
      "loud": 3240,
      "lights": 3241,
      "lunch": 3242,
      "living": 3243,
      "laces": 3244,
      "lives": 3245,
      "lished": 3246,
      "mp": 3247,
      "mot": 3248,
      "mir": 3249,
      "mate": 3250,
      "must": 3251,
      "mity": 3252,
      "mine": 3253,
      "mass": 3254,
      "mning": 3255,
      "mile": 3256,
      "moud": 3257,
      "mask": 3258,
      "mowed": 3259,
      "mouth": 3260,
      "master": 3261,
      "ner": 3262,
      "nar": 3263,
      "nas": 3264,
      "nom": 3265,
      "nap": 3266,
      "nos": 3267,
      "nant": 3268,
      "nud": 3269,
      "nish": 3270,
      "nists": 3271,
      "nail": 3272,
      "nments": 3273,
      "nie": 3274,
      "nsy": 3275,
      "nistic": 3276,
      "nurses": 3277,
      "ox": 3278,
      "oon": 3279,
      "ove": 3280,
      "oter": 3281,
      "othing": 3282,
      "oret": 3283,
      "ods": 3284,
      "ograph": 3285,
      "orectal": 3286,
      "pu": 3287,
      "pas": 3288,
      "pic": 3289,
      "pot": 3290,
      "ply": 3291,
      "pop": 3292,
      "pap": 3293,
      "pend": 3294,
      "phas": 3295,
      "poo": 3296,
      "pound": 3297,
      "pred": 3298,
      "past": 3299,
      "pite": 3300,
      "prec": 3301,
      "park": 3302,
      "pped": 3303,
      "pie": 3304,
      "pict": 3305,
      "pug": 3306,
      "pants": 3307,
      "paving": 3308,
      "pumped": 3309,
      "pushed": 3310,
      "purses": 3311,
      "rad": 3312,
      "rare": 3313,
      "rout": 3314,
      "roc": 3315,
      "rain": 3316,
      "rue": 3317,
      "rice": 3318,
      "rated": 3319,
      "rage": 3320,
      "rum": 3321,
      "rist": 3322,
      "rating": 3323,
      "rott": 3324,
      "roscop": 3325,
      "rubble": 3326,
      "rushed": 3327,
      "sin": 3328,
      "sen": 3329,
      "sand": 3330,
      "sir": 3331,
      "sun": 3332,
      "smo": 3333,
      "sound": 3334,
      "snow": 3335,
      "scar": 3336,
      "site": 3337,
      "swee": 3338,
      "sens": 3339,
      "sold": 3340,
      "slow": 3341,
      "slap": 3342,
      "stop": 3343,
      "smil": 3344,
      "stories": 3345,
      "sense": 3346,
      "sending": 3347,
      "ski": 3348,
      "sisters": 3349,
      "south": 3350,
      "skies": 3351,
      "slid": 3352,
      "smile": 3353,
      "snap": 3354,
      "tw": 3355,
      "tit": 3356,
      "tam": 3357,
      "tment": 3358,
      "tun": 3359,
      "twe": 3360,
      "tack": 3361,
      "tty": 3362,
      "ture": 3363,
      "tations": 3364,
      "trem": 3365,
      "tried": 3366,
      "tless": 3367,
      "tress": 3368,
      "tune": 3369,
      "tells": 3370,
      "tiny": 3371,
      "tention": 3372,
      "tendances": 3373,
      "uel": 3374,
      "uce": 3375,
      "upl": 3376,
      "uate": 3377,
      "uation": 3378,
      "uals": 3379,
      "ume": 3380,
      "uum": 3381,
      "ugu": 3382,
      "uments": 3383,
      "ucky": 3384,
      "uids": 3385,
      "vac": 3386,
      "vere": 3387,
      "vul": 3388,
      "vies": 3389,
      "vass": 3390,
      "vinc": 3391,
      "vote": 3392,
      "vided": 3393,
      "vention": 3394,
      "wer": 3395,
      "wes": 3396,
      "ware": 3397,
      "wiz": 3398,
      "winter": 3399,
      "whel": 3400,
      "wins": 3401,
      "wks": 3402,
      "watch": 3403,
      "wave": 3404,
      "wince": 3405,
      "walle": 3406,
      "wise": 3407,
      "wowed": 3408,
      "xpe": 3409,
      "xious": 3410,
      "xually": 3411,
      "ying": 3412,
      "yes": 3413,
      "yell": 3414,
      "ygen": 3415,
      "yright": 3416,
      "ycle": 3417,
      "yiel": 3418,
      "yog": 3419,
      "ynistic": 3420,
      "zer": 3421,
      "zed": 3422,
      "zens": 3423,
      "znel": 3424,
      "thur": 3425,
      "thir": 3426,
      "thous": 3427,
      "threat": 3428,
      "thood": 3429,
      "thods": 3430,
      "thrott": 3431,
      "inx": 3432,
      "ined": 3433,
      "inal": 3434,
      "ines": 3435,
      "inst": 3436,
      "inent": 3437,
      "inch": 3438,
      "insp": 3439,
      "inde": 3440,
      "intr": 3441,
      "inau": 3442,
      "inqu": 3443,
      "inated": 3444,
      "incar": 3445,
      "insur": 3446,
      "infe": 3447,
      "injustice": 3448,
      "incompreh": 3449,
      "intimid": 3450,
      "indefinitely": 3451,
      "inappropriate": 3452,
      "inmate": 3453,
      "eras": 3454,
      "eration": 3455,
      "erally": 3456,
      "erup": 3457,
      "erta": 3458,
      "erial": 3459,
      "erves": 3460,
      "erbate": 3461,
      "eroon": 3462,
      "anis": 3463,
      "aning": 3464,
      "anch": 3465,
      "anity": 3466,
      "ania": 3467,
      "anage": 3468,
      "anced": 3469,
      "anah": 3470,
      "anony": 3471,
      "anoid": 3472,
      "theless": 3473,
      "ona": 3474,
      "onen": 3475,
      "onment": 3476,
      "onies": 3477,
      "onlight": 3478,
      "rear": 3479,
      "rees": 3480,
      "reas": 3481,
      "reve": 3482,
      "rely": 3483,
      "remed": 3484,
      "repres": 3485,
      "reach": 3486,
      "reinv": 3487,
      "reset": 3488,
      "rethink": 3489,
      "return": 3490,
      "rease": 3491,
      "research": 3492,
      "repris": 3493,
      "relie": 3494,
      "reason": 3495,
      "rejoin": 3496,
      "reaction": 3497,
      "repreh": 3498,
      "reject": 3499,
      "reput": 3500,
      "rewrit": 3501,
      "repug": 3502,
      "ator": 3503,
      "atus": 3504,
      "aturing": 3505,
      "atically": 3506,
      "atively": 3507,
      "atics": 3508,
      "eda": 3509,
      "edad": 3510,
      "ened": 3511,
      "ento": 3512,
      "enes": 3513,
      "enger": 3514,
      "enges": 3515,
      "ency": 3516,
      "envir": 3517,
      "encing": 3518,
      "too": 3519,
      "tout": 3520,
      "topl": 3521,
      "toge": 3522,
      "tovi": 3523,
      "toms": 3524,
      "toured": 3525,
      "toler": 3526,
      "ised": 3527,
      "ision": 3528,
      "issa": 3529,
      "isha": 3530,
      "isms": 3531,
      "isition": 3532,
      "alter": 3533,
      "alone": 3534,
      "alian": 3535,
      "alem": 3536,
      "algia": 3537,
      "orig": 3538,
      "ority": 3539,
      "orite": 3540,
      "orph": 3541,
      "orious": 3542,
      "ords": 3543,
      "orgia": 3544,
      "oubl": 3545,
      "ouda": 3546,
      "arn": 3547,
      "aritan": 3548,
      "argue": 3549,
      "arrely": 3550,
      "espe": 3551,
      "ested": 3552,
      "esoter": 3553,
      "asle": 3554,
      "assa": 3555,
      "assu": 3556,
      "asia": 3557,
      "asant": 3558,
      "iti": 3559,
      "itic": 3560,
      "itter": 3561,
      "itage": 3562,
      "itions": 3563,
      "itical": 3564,
      "itness": 3565,
      "itutes": 3566,
      "ands": 3567,
      "idel": 3568,
      "idisc": 3569,
      "iduals": 3570,
      "hear": 3571,
      "hever": 3572,
      "heard": 3573,
      "heart": 3574,
      "heav": 3575,
      "leted": 3576,
      "leave": 3577,
      "level": 3578,
      "leaving": 3579,
      "leaning": 3580,
      "learn": 3581,
      "ster": 3582,
      "ston": 3583,
      "stel": 3584,
      "stab": 3585,
      "stell": 3586,
      "stip": 3587,
      "stro": 3588,
      "stren": 3589,
      "stress": 3590,
      "staged": 3591,
      "staff": 3592,
      "status": 3593,
      "stalgia": 3594,
      "stitutes": 3595,
      "icit": 3596,
      "icop": 3597,
      "icals": 3598,
      "icine": 3599,
      "icans": 3600,
      "icated": 3601,
      "icide": 3602,
      "icating": 3603,
      "icago": 3604,
      "ichever": 3605,
      "iles": 3606,
      "ilos": 3607,
      "illegal": 3608,
      "ilizing": 3609,
      "enty": 3610,
      "entice": 3611,
      "entire": 3612,
      "aced": 3613,
      "acle": 3614,
      "acad": 3615,
      "acter": 3616,
      "acial": 3617,
      "acious": 3618,
      "aciated": 3619,
      "acerbate": 3620,
      "omacy": 3621,
      "beat": 3622,
      "bets": 3623,
      "beli": 3624,
      "below": 3625,
      "belong": 3626,
      "behalf": 3627,
      "becoming": 3628,
      "becomes": 3629,
      "begs": 3630,
      "elig": 3631,
      "eline": 3632,
      "ioned": 3633,
      "ionsh": 3634,
      "ads": 3635,
      "ader": 3636,
      "ades": 3637,
      "adap": 3638,
      "adage": 3639,
      "admission": 3640,
      "adult": 3641,
      "adium": 3642,
      "aduate": 3643,
      "vet": 3644,
      "vey": 3645,
      "veter": 3646,
      "vement": 3647,
      "vember": 3648,
      "terday": 3649,
      "chu": 3650,
      "chur": 3651,
      "chall": 3652,
      "chart": 3653,
      "chased": 3654,
      "aman": 3655,
      "amber": 3656,
      "amph": 3657,
      "amba": 3658,
      "ambulances": 3659,
      "ambassador": 3660,
      "sewhere": 3661,
      "seven": 3662,
      "seize": 3663,
      "severe": 3664,
      "sexually": 3665,
      "ota": 3666,
      "ots": 3667,
      "otap": 3668,
      "otted": 3669,
      "otest": 3670,
      "whate": 3671,
      "whack": 3672,
      "white": 3673,
      "forth": 3674,
      "force": 3675,
      "forman": 3676,
      "forting": 3677,
      "format": 3678,
      "formed": 3679,
      "forms": 3680,
      "forced": 3681,
      "forgiv": 3682,
      "forgiven": 3683,
      "fortune": 3684,
      "agant": 3685,
      "agents": 3686,
      "agnos": 3687,
      "agrees": 3688,
      "agency": 3689,
      "owds": 3690,
      "olating": 3691,
      "olences": 3692,
      "rik": 3693,
      "riates": 3694,
      "ripped": 3695,
      "eree": 3696,
      "ura": 3697,
      "urged": 3698,
      "urges": 3699,
      "urbed": 3700,
      "uritan": 3701,
      "Their": 3702,
      "Theoret": 3703,
      "ares": 3704,
      "areas": 3705,
      "save": 3706,
      "safe": 3707,
      "saves": 3708,
      "verify": 3709,
      "illac": 3710,
      "irs": 3711,
      "iry": 3712,
      "irts": 3713,
      "irley": 3714,
      "irsty": 3715,
      "washed": 3716,
      "imi": 3717,
      "imal": 3718,
      "impro": 3719,
      "impart": 3720,
      "immat": 3721,
      "impres": 3722,
      "images": 3723,
      "impun": 3724,
      "implan": 3725,
      "impul": 3726,
      "imeter": 3727,
      "utally": 3728,
      "igue": 3729,
      "igious": 3730,
      "hairsty": 3731,
      "princ": 3732,
      "protest": 3733,
      "spell": 3734,
      "spend": 3735,
      "spew": 3736,
      "space": 3737,
      "spits": 3738,
      "split": 3739,
      "spells": 3740,
      "spons": 3741,
      "spoke": 3742,
      "spaces": 3743,
      "spacial": 3744,
      "spotted": 3745,
      "history": 3746,
      "neigh": 3747,
      "neck": 3748,
      "negot": 3749,
      "neither": 3750,
      "abnor": 3751,
      "abuse": 3752,
      "abbing": 3753,
      "mention": 3754,
      "oppo": 3755,
      "opens": 3756,
      "ophies": 3757,
      "note": 3758,
      "notes": 3759,
      "unple": 3760,
      "unjust": 3761,
      "unsc": 3762,
      "unged": 3763,
      "univer": 3764,
      "unclear": 3765,
      "unusually": 3766,
      "unacceptable": 3767,
      "unfolded": 3768,
      "unconscious": 3769,
      "unfit": 3770,
      "ungber": 3771,
      "unforgiv": 3772,
      "deed": 3773,
      "debut": 3774,
      "demon": 3775,
      "deep": 3776,
      "detain": 3777,
      "deploy": 3778,
      "deported": 3779,
      "demning": 3780,
      "detention": 3781,
      "deleted": 3782,
      "apy": 3783,
      "appl": 3784,
      "appreh": 3785,
      "ounced": 3786,
      "ourish": 3787,
      "suited": 3788,
      "sudden": 3789,
      "suffic": 3790,
      "suicide": 3791,
      "outdo": 3792,
      "outline": 3793,
      "outcry": 3794,
      "outrage": 3795,
      "conqu": 3796,
      "confir": 3797,
      "confer": 3798,
      "consequ": 3799,
      "consulate": 3800,
      "congrat": 3801,
      "convinc": 3802,
      "condemning": 3803,
      "ceived": 3804,
      "cept": 3805,
      "pled": 3806,
      "pling": 3807,
      "plenty": 3808,
      "plunged": 3809,
      "trust": 3810,
      "trict": 3811,
      "traj": 3812,
      "troubl": 3813,
      "franch": 3814,
      "fritter": 3815,
      "alloc": 3816,
      "compat": 3817,
      "composed": 3818,
      "compu": 3819,
      "comforting": 3820,
      "ifican": 3821,
      "geo": 3822,
      "geons": 3823,
      "gehri": 3824,
      "ocide": 3825,
      "ocks": 3826,
      "ocaust": 3827,
      "occup": 3828,
      "ween": 3829,
      "weigh": 3830,
      "wealth": 3831,
      "weather": 3832,
      "ategy": 3833,
      "peak": 3834,
      "kees": 3835,
      "therland": 3836,
      "manager": 3837,
      "model": 3838,
      "movies": 3839,
      "moirs": 3840,
      "arded": 3841,
      "arding": 3842,
      "ardian": 3843,
      "ardice": 3844,
      "cling": 3845,
      "clum": 3846,
      "class": 3847,
      "close": 3848,
      "clinic": 3849,
      "clothing": 3850,
      "clamber": 3851,
      "clocks": 3852,
      "exists": 3853,
      "expat": 3854,
      "exem": 3855,
      "excit": 3856,
      "exchange": 3857,
      "excell": 3858,
      "extrem": 3859,
      "exacerbate": 3860,
      "except": 3861,
      "ained": 3862,
      "share": 3863,
      "shut": 3864,
      "shals": 3865,
      "shoo": 3866,
      "shame": 3867,
      "short": 3868,
      "shiel": 3869,
      "sharing": 3870,
      "shouts": 3871,
      "shared": 3872,
      "shirts": 3873,
      "reserved": 3874,
      "whose": 3875,
      "estic": 3876,
      "brough": 3877,
      "brush": 3878,
      "brings": 3879,
      "broke": 3880,
      "braced": 3881,
      "brutally": 3882,
      "ults": 3883,
      "ultim": 3884,
      "ulting": 3885,
      "ulating": 3886,
      "ulates": 3887,
      "hasn": 3888,
      "dozens": 3889,
      "aud": 3890,
      "authen": 3891,
      "early": 3892,
      "earning": 3893,
      "gray": 3894,
      "grown": 3895,
      "grave": 3896,
      "graff": 3897,
      "graduate": 3898,
      "grabbing": 3899,
      "ivas": 3900,
      "ivities": 3901,
      "ivonen": 3902,
      "ivision": 3903,
      "ividuals": 3904,
      "actually": 3905,
      "Start": 3906,
      "Step": 3907,
      "Stens": 3908,
      "Stampa": 3909,
      "Staff": 3910,
      "Steve": 3911,
      "Stadium": 3912,
      "please": 3913,
      "overall": 3914,
      "overdue": 3915,
      "overstep": 3916,
      "overprotective": 3917,
      "overwhel": 3918,
      "word": 3919,
      "worst": 3920,
      "worse": 3921,
      "worry": 3922,
      "words": 3923,
      "worris": 3924,
      "worrying": 3925,
      "inea": 3926,
      "Hey": 3927,
      "Head": 3928,
      "meal": 3929,
      "methods": 3930,
      "memoirs": 3931,
      "essing": 3932,
      "essment": 3933,
      "essional": 3934,
      "essential": 3935,
      "owns": 3936,
      "owning": 3937,
      "Then": 3938,
      "Three": 3939,
      "Though": 3940,
      "Threat": 3941,
      "Thier": 3942,
      "upon": 3943,
      "upset": 3944,
      "upright": 3945,
      "updated": 3946,
      "redist": 3947,
      "redib": 3948,
      "artistic": 3949,
      "20th": 3950,
      "2020": 3951,
      "NNEAP": 3952,
      "aft": 3953,
      "affil": 3954,
      "donation": 3955,
      "donated": 3956,
      "foster": 3957,
      "liver": 3958,
      "likes": 3959,
      "porn": 3960,
      "porter": 3961,
      "porters": 3962,
      "willing": 3963,
      "ansive": 3964,
      "answer": 3965,
      "timeline": 3966,
      "otherwise": 3967,
      "tee": 3968,
      "tember": 3969,
      "using": 3970,
      "users": 3971,
      "usional": 3972,
      "usalem": 3973,
      "proof": 3974,
      "prospec": 3975,
      "produ": 3976,
      "provided": 3977,
      "caning": 3978,
      "canvass": 3979,
      "ewitness": 3980,
      "quit": 3981,
      "quite": 3982,
      "quities": 3983,
      "tortured": 3984,
      "offer": 3985,
      "offense": 3986,
      "offending": 3987,
      "offered": 3988,
      "major": 3989,
      "maxim": 3990,
      "atedly": 3991,
      "idea": 3992,
      "idemic": 3993,
      "Italian": 3994,
      "carve": 3995,
      "carrying": 3996,
      "acceding": 3997,
      "afterno": 3998,
      "afterward": 3999,
      "avi": 4000,
      "avo": 4001,
      "avel": 4002,
      "avagant": 4003,
      "dering": 4004,
      "sip": 4005,
      "sibl": 4006,
      "sibling": 4007,
      "size": 4008,
      "siolog": 4009,
      "wool": 4010,
      "Another": 4011,
      "Anton": 4012,
      "Anti": 4013,
      "Animal": 4014,
      "perate": 4015,
      "percent": 4016,
      "performan": 4017,
      "perceived": 4018,
      "ameter": 4019,
      "boy": 4020,
      "boys": 4021,
      "boots": 4022,
      "cold": 4023,
      "colum": 4024,
      "colleague": 4025,
      "collis": 4026,
      "colorectal": 4027,
      "tabel": 4028,
      "wherever": 4029,
      "goalke": 4030,
      "merce": 4031,
      "mercy": 4032,
      "mond": 4033,
      "monies": 4034,
      "ummer": 4035,
      "vile": 4036,
      "violating": 4037,
      "Instag": 4038,
      "Institutes": 4039,
      "Indeed": 4040,
      "coin": 4041,
      "cois": 4042,
      "coach": 4043,
      "cooper": 4044,
      "covey": 4045,
      "cerated": 4046,
      "cerned": 4047,
      "party": 4048,
      "parties": 4049,
      "partially": 4050,
      "partners": 4051,
      "type": 4052,
      "indled": 4053,
      "indict": 4054,
      "individuals": 4055,
      "dogfighting": 4056,
      "Leader": 4057,
      "mati": 4058,
      "matter": 4059,
      "mattress": 4060,
      "material": 4061,
      "medic": 4062,
      "nod": 4063,
      "noxious": 4064,
      "nostalgia": 4065,
      "presence": 4066,
      "surfac": 4067,
      "surreal": 4068,
      "surpass": 4069,
      "surgical": 4070,
      "surgeons": 4071,
      "charts": 4072,
      "charms": 4073,
      "charities": 4074,
      "charitable": 4075,
      "charging": 4076,
      "character": 4077,
      "newly": 4078,
      "newfang": 4079,
      "Why": 4080,
      "Whichever": 4081,
      "berbul": 4082,
      "caused": 4083,
      "causing": 4084,
      "causes": 4085,
      "ipating": 4086,
      "thank": 4087,
      "anti": 4088,
      "antive": 4089,
      "recover": 4090,
      "rector": 4091,
      "recoup": 4092,
      "records": 4093,
      "assy": 4094,
      "assic": 4095,
      "assist": 4096,
      "assessment": 4097,
      "downward": 4098,
      "iality": 4099,
      "interstate": 4100,
      "interro": 4101,
      "interven": 4102,
      "anyah": 4103,
      "helicop": 4104,
      "Unlaw": 4105,
      "Univision": 4106,
      "bleeding": 4107,
      "casters": 4108,
      "casino": 4109,
      "draw": 4110,
      "drug": 4111,
      "drawn": 4112,
      "drove": 4113,
      "drowning": 4114,
      "draft": 4115,
      "drummer": 4116,
      "eping": 4117,
      "epidemic": 4118,
      "eves": 4119,
      "event": 4120,
      "events": 4121,
      "eveless": 4122,
      "fees": 4123,
      "featuring": 4124,
      "guy": 4125,
      "guard": 4126,
      "guide": 4127,
      "guys": 4128,
      "guards": 4129,
      "guidel": 4130,
      "lande": 4131,
      "landed": 4132,
      "mined": 4133,
      "ministers": 4134,
      "ministry": 4135,
      "pares": 4136,
      "poses": 4137,
      "position": 4138,
      "possible": 4139,
      "soon": 4140,
      "soap": 4141,
      "soever": 4142,
      "therefore": 4143,
      "School": 4144,
      "Scholes": 4145,
      "diers": 4146,
      "diagnos": 4147,
      "diameter": 4148,
      "director": 4149,
      "scary": 4150,
      "scouting": 4151,
      "scares": 4152,
      "ishly": 4153,
      "ishman": 4154,
      "parenthood": 4155,
      "1915": 4156,
      "1955": 4157,
      "1960": 4158,
      "1959": 4159,
      "1961": 4160,
      "awarded": 4161,
      "ckham": 4162,
      "disloc": 4163,
      "disagreed": 4164,
      "disappear": 4165,
      "discharged": 4166,
      "disaster": 4167,
      "disband": 4168,
      "disease": 4169,
      "desire": 4170,
      "despic": 4171,
      "deserves": 4172,
      "desperate": 4173,
      "lost": 4174,
      "loved": 4175,
      "logical": 4176,
      "yours": 4177,
      "yoursel": 4178,
      "yourself": 4179,
      "insists": 4180,
      "insights": 4181,
      "Although": 4182,
      "Altern": 4183,
      "Alavi": 4184,
      "Newcast": 4185,
      "Newtown": 4186,
      "balls": 4187,
      "reporters": 4188,
      "achie": 4189,
      "contents": 4190,
      "contacted": 4191,
      "helped": 4192,
      "backed": 4193,
      "backup": 4194,
      "backpack": 4195,
      "backdrop": 4196,
      "county": 4197,
      "counsel": 4198,
      "etmar": 4199,
      "fie": 4200,
      "fix": 4201,
      "file": 4202,
      "fixt": 4203,
      "gots": 4204,
      "philos": 4205,
      "pretrial": 4206,
      "pretty": 4207,
      "prepares": 4208,
      "rah": 4209,
      "raise": 4210,
      "rails": 4211,
      "raised": 4212,
      "sheer": 4213,
      "signs": 4214,
      "significan": 4215,
      "increase": 4216,
      "incredib": 4217,
      "ensively": 4218,
      "tournam": 4219,
      "tourism": 4220,
      "conditions": 4221,
      "condolences": 4222,
      "2012": 4223,
      "statements": 4224,
      "aki": 4225,
      "fried": 4226,
      "general": 4227,
      "genocide": 4228,
      "inclusion": 4229,
      "restaur": 4230,
      "attention": 4231,
      "attends": 4232,
      "attendances": 4233,
      "arkably": 4234,
      "settle": 4235,
      "undergoing": 4236,
      "undermine": 4237,
      "undergraduate": 4238,
      "everywhere": 4239,
      "Attendances": 4240,
      "Beach": 4241,
      "Behind": 4242,
      "Beaz": 4243,
      "Beckham": 4244,
      "bune": 4245,
      "efings": 4246,
      "efully": 4247,
      "fined": 4248,
      "finals": 4249,
      "finally": 4250,
      "finances": 4251,
      "filing": 4252,
      "filmed": 4253,
      "fourth": 4254,
      "founding": 4255,
      "foundation": 4256,
      "thinking": 4257,
      "respect": 4258,
      "aliation": 4259,
      "securing": 4260,
      "secret": 4261,
      "seeing": 4262,
      "seems": 4263,
      "seeming": 4264,
      "trying": 4265,
      "friendly": 4266,
      "Minnes": 4267,
      "Ministry": 4268,
      "Minority": 4269,
      "longer": 4270,
      "powers": 4271,
      "tonight": 4272,
      "tweeting": 4273,
      "recept": 4274,
      "whatsoever": 4275,
      "completing": 4276,
      "2001": 4277,
      "2003": 4278,
      "2004": 4279,
      "2008": 4280,
      "2009": 4281,
      "matches": 4282,
      "responsible": 4283,
      "responses": 4284,
      "America": 4285,
      "Americans": 4286,
      "Chest": 4287,
      "Chris": 4288,
      "Champ": 4289,
      "Chief": 4290,
      "Christ": 4291,
      "Chicago": 4292,
      "Chivas": 4293,
      "Team": 4294,
      "Teaching": 4295,
      "blame": 4296,
      "blood": 4297,
      "bigger": 4298,
      "books": 4299,
      "captured": 4300,
      "ectory": 4301,
      "emies": 4302,
      "employ": 4303,
      "emphas": 4304,
      "emaciated": 4305,
      "factors": 4306,
      "facilities": 4307,
      "famed": 4308,
      "hometown": 4309,
      "locals": 4310,
      "locations": 4311,
      "locker": 4312,
      "locked": 4313,
      "roughly": 4314,
      "announced": 4315,
      "remarkably": 4316,
      "atched": 4317,
      "string": 4318,
      "stray": 4319,
      "strations": 4320,
      "strug": 4321,
      "strategy": 4322,
      "entering": 4323,
      "adds": 4324,
      "appealed": 4325,
      "appeared": 4326,
      "truly": 4327,
      "footage": 4328,
      "officer": 4329,
      "officially": 4330,
      "bodily": 4331,
      "viewers": 4332,
      "evening": 4333,
      "Bravo": 4334,
      "Frank": 4335,
      "Francois": 4336,
      "People": 4337,
      "career": 4338,
      "careers": 4339,
      "lessly": 4340,
      "lessons": 4341,
      "looked": 4342,
      "sentencing": 4343,
      "selfie": 4344,
      "schedu": 4345,
      "tale": 4346,
      "tales": 4347,
      "talents": 4348,
      "retion": 4349,
      "retired": 4350,
      "retaliation": 4351,
      "resume": 4352,
      "resuming": 4353,
      "chains": 4354,
      "searchers": 4355,
      "formally": 4356,
      "agreements": 4357,
      "processing": 4358,
      "needed": 4359,
      "sidering": 4360,
      "Details": 4361,
      "Demati": 4362,
      "Mike": 4363,
      "Reaching": 4364,
      "Reporter": 4365,
      "cycling": 4366,
      "cyberbul": 4367,
      "ganization": 4368,
      "hami": 4369,
      "hammer": 4370,
      "literally": 4371,
      "lifting": 4372,
      "namics": 4373,
      "polished": 4374,
      "political": 4375,
      "published": 4376,
      "sale": 4377,
      "sales": 4378,
      "salacious": 4379,
      "sitting": 4380,
      "situation": 4381,
      "unexpe": 4382,
      "veling": 4383,
      "warm": 4384,
      "warned": 4385,
      "warring": 4386,
      "angle": 4387,
      "angel": 4388,
      "toppled": 4389,
      "stars": 4390,
      "ictable": 4391,
      "propert": 4392,
      "supposed": 4393,
      "supporters": 4394,
      "bothers": 4395,
      "pairing": 4396,
      "feels": 4397,
      "effort": 4398,
      "appears": 4399,
      "procedures": 4400,
      "Conspir": 4401,
      "Consulate": 4402,
      "Control": 4403,
      "Congrat": 4404,
      "Concerned": 4405,
      "Considering": 4406,
      "Foe": 4407,
      "More": 4408,
      "Moonlight": 4409,
      "Medicine": 4410,
      "Organization": 4411,
      "Working": 4412,
      "beside": 4413,
      "bull": 4414,
      "bully": 4415,
      "bulls": 4416,
      "cheer": 4417,
      "cheap": 4418,
      "chemother": 4419,
      "cheolog": 4420,
      "dazed": 4421,
      "feds": 4422,
      "gives": 4423,
      "governing": 4424,
      "highligh": 4425,
      "iently": 4426,
      "license": 4427,
      "marked": 4428,
      "pping": 4429,
      "rise": 4430,
      "runs": 4431,
      "symp": 4432,
      "serve": 4433,
      "served": 4434,
      "simple": 4435,
      "simply": 4436,
      "ticity": 4437,
      "tickets": 4438,
      "tilted": 4439,
      "winning": 4440,
      "winners": 4441,
      "winner": 4442,
      "wondering": 4443,
      "witness": 4444,
      "regional": 4445,
      "regarding": 4446,
      "relation": 4447,
      "relations": 4448,
      "relax": 4449,
      "religious": 4450,
      "realized": 4451,
      "attract": 4452,
      "attracted": 4453,
      "attracts": 4454,
      "legally": 4455,
      "letters": 4456,
      "stepped": 4457,
      "terriers": 4458,
      "territory": 4459,
      "terrific": 4460,
      "opposed": 4461,
      "opposing": 4462,
      "opposition": 4463,
      "defensively": 4464,
      "deadly": 4465,
      "deadline": 4466,
      "contract": 4467,
      "contracts": 4468,
      "transgress": 4469,
      "transformation": 4470,
      "closed": 4471,
      "claims": 4472,
      "ussions": 4473,
      "cancerous": 4474,
      "period": 4475,
      "collapse": 4476,
      "takeover": 4477,
      "polygraph": 4478,
      "investigate": 4479,
      "investigation": 4480,
      "investigated": 4481,
      "investigations": 4482,
      "investigating": 4483,
      "investigators": 4484,
      "attacking": 4485,
      "missioner": 4486,
      "results": 4487,
      "resulted": 4488,
      "Advis": 4489,
      "Around": 4490,
      "Arthur": 4491,
      "Archeolog": 4492,
      "Holocaust": 4493,
      "Hollande": 4494,
      "Manhatt": 4495,
      "Manaman": 4496,
      "Malki": 4497,
      "Nothing": 4498,
      "Nowhere": 4499,
      "November": 4500,
      "Radnor": 4501,
      "Seaha": 4502,
      "cross": 4503,
      "cruel": 4504,
      "critic": 4505,
      "crowds": 4506,
      "crowns": 4507,
      "cites": 4508,
      "dened": 4509,
      "denial": 4510,
      "denied": 4511,
      "denying": 4512,
      "factions": 4513,
      "followed": 4514,
      "gambling": 4515,
      "hua": 4516,
      "huge": 4517,
      "iplinary": 4518,
      "linger": 4519,
      "middle": 4520,
      "miles": 4521,
      "momento": 4522,
      "messenger": 4523,
      "odds": 4524,
      "oduce": 4525,
      "ogynistic": 4526,
      "pundit": 4527,
      "punisha": 4528,
      "solution": 4529,
      "soldiers": 4530,
      "ugal": 4531,
      "ugly": 4532,
      "vision": 4533,
      "videotap": 4534,
      "injuring": 4535,
      "issued": 4536,
      "arrests": 4537,
      "asked": 4538,
      "leads": 4539,
      "leader": 4540,
      "leaders": 4541,
      "strike": 4542,
      "stripping": 4543,
      "behaving": 4544,
      "seconds": 4545,
      "riverbank": 4546,
      "profit": 4547,
      "profitable": 4548,
      "profanity": 4549,
      "profiles": 4550,
      "professional": 4551,
      "spoken": 4552,
      "submit": 4553,
      "subject": 4554,
      "subsequ": 4555,
      "experiences": 4556,
      "shore": 4557,
      "shoes": 4558,
      "shouldn": 4559,
      "bringing": 4560,
      "ulties": 4561,
      "temple": 4562,
      "probity": 4563,
      "prosecute": 4564,
      "prosecution": 4565,
      "prosecutor": 4566,
      "collection": 4567,
      "Interstate": 4568,
      "weekly": 4569,
      "field": 4570,
      "physical": 4571,
      "physically": 4572,
      "generally": 4573,
      "generous": 4574,
      "joining": 4575,
      "Israeli": 4576,
      "Israelis": 4577,
      "selflessly": 4578,
      "prisoner": 4579,
      "publicist": 4580,
      "communicating": 4581,
      "defender": 4582,
      "Afterward": 4583,
      "develops": 4584,
      "developed": 4585,
      "Africa": 4586,
      "Club": 4587,
      "Clash": 4588,
      "Clinic": 4589,
      "Classic": 4590,
      "Cancer": 4591,
      "Gabriel": 4592,
      "McManaman": 4593,
      "Neild": 4594,
      "Netherland": 4595,
      "Partners": 4596,
      "Scenes": 4597,
      "Share": 4598,
      "Shirley": 4599,
      "breach": 4600,
      "breathe": 4601,
      "fund": 4602,
      "funds": 4603,
      "lake": 4604,
      "launder": 4605,
      "mistake": 4606,
      "misbehave": 4607,
      "misguided": 4608,
      "misogynistic": 4609,
      "markets": 4610,
      "marizing": 4611,
      "marveling": 4612,
      "oaded": 4613,
      "prime": 4614,
      "primary": 4615,
      "ruins": 4616,
      "ruined": 4617,
      "tribe": 4618,
      "tripling": 4619,
      "venue": 4620,
      "venues": 4621,
      "volume": 4622,
      "woman": 4623,
      "waterproof": 4624,
      "thesia": 4625,
      "onsor": 4626,
      "reigning": 4627,
      "referred": 4628,
      "reference": 4629,
      "referring": 4630,
      "reviewing": 4631,
      "towards": 4632,
      "ordered": 4633,
      "organized": 4634,
      "arrive": 4635,
      "strange": 4636,
      "strangers": 4637,
      "between": 4638,
      "chanted": 4639,
      "changed": 4640,
      "promote": 4641,
      "prominent": 4642,
      "historical": 4643,
      "summer": 4644,
      "conspiracy": 4645,
      "placed": 4646,
      "places": 4647,
      "commentator": 4648,
      "teenage": 4649,
      "teenager": 4650,
      "programme": 4651,
      "programmer": 4652,
      "programming": 4653,
      "certainly": 4654,
      "point": 4655,
      "pointed": 4656,
      "associate": 4657,
      "interviews": 4658,
      "interviewer": 4659,
      "dramatically": 4660,
      "directly": 4661,
      "directions": 4662,
      "screens": 4663,
      "screened": 4664,
      "conducted": 4665,
      "respondents": 4666,
      "remains": 4667,
      "remained": 4668,
      "remaining": 4669,
      "strongly": 4670,
      "expectant": 4671,
      "expectations": 4672,
      "pitcher": 4673,
      "controlled": 4674,
      "controlling": 4675,
      "behaviour": 4676,
      "swapping": 4677,
      "...": 4678,
      "123rd": 4679,
      "683": 4680,
      "685": 4681,
      "Boy": 4682,
      "Boys": 4683,
      "Boston": 4684,
      "Bolten": 4685,
      "Cameroon": 4686,
      "England": 4687,
      "Hostel": 4688,
      "Henrik": 4689,
      "Lake": 4690,
      "Laura": 4691,
      "MIAMI": 4692,
      "MINNEAP": 4693,
      "Mauritan": 4694,
      "Michel": 4695,
      "Portions": 4696,
      "Portugu": 4697,
      "Portugal": 4698,
      "Sponsor": 4699,
      "Security": 4700,
      "averse": 4701,
      "average": 4702,
      "averaged": 4703,
      "bones": 4704,
      "bonus": 4705,
      "badly": 4706,
      "cats": 4707,
      "dancer": 4708,
      "dates": 4709,
      "douh": 4710,
      "deliber": 4711,
      "delusional": 4712,
      "drive": 4713,
      "diffic": 4714,
      "documents": 4715,
      "easy": 4716,
      "easier": 4717,
      "eastern": 4718,
      "flick": 4719,
      "fluids": 4720,
      "flourish": 4721,
      "felonies": 4722,
      "fellow": 4723,
      "fastballs": 4724,
      "glare": 4725,
      "giants": 4726,
      "horror": 4727,
      "hurtful": 4728,
      "jectionable": 4729,
      "large": 4730,
      "larger": 4731,
      "largest": 4732,
      "lightly": 4733,
      "lightning": 4734,
      "multidisc": 4735,
      "obscene": 4736,
      "obnoxious": 4737,
      "objectionable": 4738,
      "purported": 4739,
      "purchased": 4740,
      "purposes": 4741,
      "pulled": 4742,
      "pulling": 4743,
      "packed": 4744,
      "riches": 4745,
      "richly": 4746,
      "richest": 4747,
      "seller": 4748,
      "squads": 4749,
      "tested": 4750,
      "testing": 4751,
      "testify": 4752,
      "viral": 4753,
      "virus": 4754,
      "walls": 4755,
      "initially": 4756,
      "anesthesia": 4757,
      "required": 4758,
      "stands": 4759,
      "standard": 4760,
      "standards": 4761,
      "students": 4762,
      "advanced": 4763,
      "vehicles": 4764,
      "terrorist": 4765,
      "terrorize": 4766,
      "terrorism": 4767,
      "amongst": 4768,
      "happen": 4769,
      "happens": 4770,
      "happening": 4771,
      "special": 4772,
      "speculate": 4773,
      "decades": 4774,
      "definition": 4775,
      "concert": 4776,
      "concerning": 4777,
      "concerned": 4778,
      "trading": 4779,
      "trades": 4780,
      "traditional": 4781,
      "transplant": 4782,
      "allows": 4783,
      "commitments": 4784,
      "committee": 4785,
      "brokered": 4786,
      "growth": 4787,
      "growing": 4788,
      "activity": 4789,
      "activists": 4790,
      "activities": 4791,
      "accession": 4792,
      "accountable": 4793,
      "participating": 4794,
      "firmly": 4795,
      "surgery": 4796,
      "casionally": 4797,
      "1979": 4798,
      "1981": 4799,
      "1984": 4800,
      "1988": 4801,
      "discretion": 4802,
      "discussions": 4803,
      "Association": 4804,
      "wraps": 4805,
      "wrapped": 4806,
      "wrongs": 4807,
      "includes": 4808,
      "colonoscopies": 4809,
      "survivor": 4810,
      "acceptance": 4811,
      "citizen": 4812,
      "humane": 4813,
      "humanity": 4814,
      "militant": 4815,
      "continuing": 4816,
      "Scottish": 4817,
      "European": 4818,
      "softball": 4819,
      "software": 4820,
      "membership": 4821,
      ",'\"": 4822,
      "38th": 4823,
      "Bernie": 4824,
      "Berlinger": 4825,
      "Barney": 4826,
      "Barcel": 4827,
      "Brian": 4828,
      "Brien": 4829,
      "Commerce": 4830,
      "Commissioner": 4831,
      "Donors": 4832,
      "Former": 4833,
      "Forbes": 4834,
      "Guardian": 4835,
      "Guinea": 4836,
      "Heritage": 4837,
      "Hamas": 4838,
      "Hamann": 4839,
      "Jersey": 4840,
      "Jerusalem": 4841,
      "Josh": 4842,
      "Joshua": 4843,
      "Justice": 4844,
      "Looking": 4845,
      "Marc": 4846,
      "Marshals": 4847,
      "Mayo": 4848,
      "Maybe": 4849,
      "MatchGrid": 4850,
      "North": 4851,
      "Northern": 4852,
      "Nevertheless": 4853,
      "Network": 4854,
      "Netanyah": 4855,
      "Preah": 4856,
      "Prevention": 4857,
      "Reserved": 4858,
      "Results": 4859,
      "Richard": 4860,
      "Richmond": 4861,
      "Series": 4862,
      "Service": 4863,
      "Shah": 4864,
      "Shaffer": 4865,
      "Something": 4866,
      "Sometimes": 4867,
      "Toivonen": 4868,
      "Wilson": 4869,
      "Wilfried": 4870,
      "Welsh": 4871,
      "Welton": 4872,
      "athed": 4873,
      "biograph": 4874,
      "correct": 4875,
      "correspondents": 4876,
      "centimeter": 4877,
      "cowards": 4878,
      "cowardice": 4879,
      "cutting": 4880,
      "carded": 4881,
      "cardiac": 4882,
      "caved": 4883,
      "cavity": 4884,
      "dual": 4885,
      "domino": 4886,
      "domestic": 4887,
      "dads": 4888,
      "farm": 4889,
      "figure": 4890,
      "figures": 4891,
      "golf": 4892,
      "golfer": 4893,
      "harmony": 4894,
      "harrow": 4895,
      "handing": 4896,
      "handful": 4897,
      "herein": 4898,
      "listed": 4899,
      "malities": 4900,
      "malcontents": 4901,
      "microscop": 4902,
      "maggots": 4903,
      "maintain": 4904,
      "mixture": 4905,
      "nude": 4906,
      "nuclear": 4907,
      "paranoid": 4908,
      "ramids": 4909,
      "rolled": 4910,
      "rape": 4911,
      "rapid": 4912,
      "sleeping": 4913,
      "sleeveless": 4914,
      "shah": 4915,
      "shape": 4916,
      "titor": 4917,
      "target": 4918,
      "tarnish": 4919,
      "wounds": 4920,
      "wounded": 4921,
      "innocent": 4922,
      "innocently": 4923,
      "refers": 4924,
      "referee": 4925,
      "repeat": 4926,
      "repeatedly": 4927,
      "reminding": 4928,
      "reminder": 4929,
      "recommended": 4930,
      "recommends": 4931,
      "encourage": 4932,
      "encourages": 4933,
      "outside": 4934,
      "style": 4935,
      "stagger": 4936,
      "street": 4937,
      "streets": 4938,
      "acquires": 4939,
      "acquisition": 4940,
      "beginning": 4941,
      "several": 4942,
      "severely": 4943,
      "illnesses": 4944,
      "important": 4945,
      "importance": 4946,
      "speaking": 4947,
      "nearby": 4948,
      "operations": 4949,
      "deterior": 4950,
      "determined": 4951,
      "suffered": 4952,
      "suffering": 4953,
      "confrontation": 4954,
      "confrontations": 4955,
      "celebrity": 4956,
      "celebrating": 4957,
      "trolls": 4958,
      "tracking": 4959,
      "compete": 4960,
      "competitor": 4961,
      "commonly": 4962,
      "comprehend": 4963,
      "occasionally": 4964,
      "expel": 4965,
      "expansive": 4966,
      "explicit": 4967,
      "explained": 4968,
      "extracting": 4969,
      "extravagant": 4970,
      "expressed": 4971,
      "expression": 4972,
      "extensive": 4973,
      "extension": 4974,
      "brickwork": 4975,
      "broadcast": 4976,
      "broadcasters": 4977,
      "audio": 4978,
      "audience": 4979,
      "ownership": 4980,
      "televised": 4981,
      "television": 4982,
      "proceeds": 4983,
      "proceedings": 4984,
      "quality": 4985,
      "question": 4986,
      "questionable": 4987,
      "avoidable": 4988,
      "Anyone": 4989,
      "boxes": 4990,
      "industry": 4991,
      "industries": 4992,
      "surprise": 4993,
      "surprised": 4994,
      "assertions": 4995,
      "dropped": 4996,
      "possibly": 4997,
      "possibilities": 4998,
      "rooms": 4999,
      "scrutiny": 5000,
      "scratched": 5001,
      "disappointed": 5002,
      "disappointment": 5003,
      "designed": 5004,
      "designated": 5005,
      "counterprodu": 5006,
      "genetic": 5007,
      "genetically": 5008,
      "writes": 5009,
      "restricts": 5010,
      "restricted": 5011,
      "responsibility": 5012,
      "responsibilities": 5013,
      "capitalized": 5014,
      "substance": 5015,
      "substantive": 5016,
      "Canadian": 5017,
      "Canadians": 5018,
      "Humane": 5019,
      "breaking": 5020,
      "breakthrough": 5021,
      "currently": 5022,
      "launched": 5023,
      "rulebook": 5024,
      "analyst": 5025,
      "analyze": 5026,
      "dangerous": 5027,
      "doubled": 5028,
      "doubtless": 5029,
      "differences": 5030,
      "doctorate": 5031,
      "anesthetic": 5032,
      "anesthesiolog": 5033,
      "transplants": 5034,
      "transplanting": 5035,
      "Authority": 5036,
      "Authorities": 5037,
      "Brazilian": 5038,
      "Jamestown": 5039,
      "Londoner": 5040,
      "Paulo": 5041,
      "Prosecutors": 5042,
      "Prosecutor": 5043,
      "euthanize": 5044,
      "euthanasia": 5045,
      "penalty": 5046,
      "penalize": 5047,
      "victims": 5048,
      "attempts": 5049,
      "attempting": 5050,
      "channeling": 5051,
      "successor": 5052,
      "successful": 5053,
      "6pm": 5054,
      "AQIM": 5055,
      "Ambulances": 5056,
      "Aulas": 5057,
      "Activities": 5058,
      "Adidas": 5059,
      "Ambassador": 5060,
      "Benjam": 5061,
      "Baggy": 5062,
      "Bafetim": 5063,
      "Bubba": 5064,
      "Bensouda": 5065,
      "Balkees": 5066,
      "Cotovi": 5067,
      "Cadillac": 5068,
      "Copyright": 5069,
      "Countdown": 5070,
      "DVDs": 5071,
      "Dietmar": 5072,
      "District": 5073,
      "Despite": 5074,
      "Daily": 5075,
      "Diplomacy": 5076,
      "Drivers": 5077,
      "Disease": 5078,
      "Elsewhere": 5079,
      "Equus": 5080,
      "Editor": 5081,
      "Embassy": 5082,
      "Egypt": 5083,
      "EMTs": 5084,
      "Faith": 5085,
      "Finally": 5086,
      "Fatou": 5087,
      "Federal": 5088,
      "Fombu": 5089,
      "Fabrice": 5090,
      "Fighting": 5091,
      "Freddie": 5092,
      "Following": 5093,
      "Georgia": 5094,
      "Generation": 5095,
      "Gilmore": 5096,
      "Gambling": 5097,
      "Grant": 5098,
      "Governments": 5099,
      "Giza": 5100,
      "Gaza": 5101,
      "HINGT": 5102,
      "Honda": 5103,
      "Hadley": 5104,
      "Hopefully": 5105,
      "Homegrown": 5106,
      "Hassan": 5107,
      "Hudson": 5108,
      "Hashanah": 5109,
      "Hampton": 5110,
      "Irishman": 5111,
      "Imagine": 5112,
      "July": 5113,
      "Jarrah": 5114,
      "Jewish": 5115,
      "Jeffre": 5116,
      "Keough": 5117,
      "Khan": 5118,
      "Katznel": 5119,
      "Karimi": 5120,
      "Kentucky": 5121,
      "Kareem": 5122,
      "Kunik": 5123,
      "Khadder": 5124,
      "Kaka": 5125,
      "Kipling": 5126,
      "Ljungber": 5127,
      "Lisbon": 5128,
      "Leslie": 5129,
      "Laurent": 5130,
      "Lindsey": 5131,
      "Lampard": 5132,
      "LONDON": 5133,
      "Liberia": 5134,
      "Muamba": 5135,
      "Midland": 5136,
      "Mentally": 5137,
      "Melissa": 5138,
      "Mamdouh": 5139,
      "Maghre": 5140,
      "Moses": 5141,
      "Machu": 5142,
      "Mahmoud": 5143,
      "Meanwhile": 5144,
      "Nancy": 5145,
      "Nielsen": 5146,
      "Occasionally": 5147,
      "Ozaki": 5148,
      "Oriol": 5149,
      "Omaha": 5150,
      "Play": 5151,
      "Puerta": 5152,
      "Pyramids": 5153,
      "Peru": 5154,
      "Patrol": 5155,
      "Pennsy": 5156,
      "Paris": 5157,
      "Picchu": 5158,
      "Police": 5159,
      "Prime": 5160,
      "Phelan": 5161,
      "Purnell": 5162,
      "Qaeda": 5163,
      "Quanis": 5164,
      "Riad": 5165,
      "Roger": 5166,
      "Rule": 5167,
      "Ryan": 5168,
      "Rory": 5169,
      "Rouhami": 5170,
      "Riddell": 5171,
      "Roman": 5172,
      "Rosh": 5173,
      "Rudyard": 5174,
      "Sky": 5175,
      "Slated": 5176,
      "Sara": 5177,
      "Sandler": 5178,
      "Samaritan": 5179,
      "Soledad": 5180,
      "Sunday": 5181,
      "Savannah": 5182,
      "Summarizing": 5183,
      "Spartan": 5184,
      "September": 5185,
      "Sphinx": 5186,
      "Spitting": 5187,
      "Switzer": 5188,
      "Travel": 5189,
      "Toure": 5190,
      "Tribune": 5191,
      "Texas": 5192,
      "Tubb": 5193,
      "Vasco": 5194,
      "Venture": 5195,
      "Vivien": 5196,
      "Veterinary": 5197,
      "Watson": 5198,
      "Walker": 5199,
      "Wayne": 5200,
      "Williams": 5201,
      "WASHINGT": 5202,
      "Yankees": 5203,
      "balmy": 5204,
      "basis": 5205,
      "biding": 5206,
      "bicycle": 5207,
      "briefings": 5208,
      "burdened": 5209,
      "bizarrely": 5210,
      "budget": 5211,
      "blog": 5212,
      "bubblewrap": 5213,
      "cameras": 5214,
      "circulate": 5215,
      "creepy": 5216,
      "creating": 5217,
      "cretins": 5218,
      "campaign": 5219,
      "civilians": 5220,
      "dwindled": 5221,
      "dynamics": 5222,
      "dedicated": 5223,
      "dirt": 5224,
      "digital": 5225,
      "divine": 5226,
      "dubbed": 5227,
      "dialysis": 5228,
      "disturbed": 5229,
      "darkness": 5230,
      "dangling": 5231,
      "eyewitness": 5232,
      "elements": 5233,
      "euro": 5234,
      "emergency": 5235,
      "eagerly": 5236,
      "fatigue": 5237,
      "filled": 5238,
      "future": 5239,
      "focused": 5240,
      "fliers": 5241,
      "favorite": 5242,
      "feverishly": 5243,
      "failed": 5244,
      "fashioned": 5245,
      "fictional": 5246,
      "fiscal": 5247,
      "gentle": 5248,
      "gural": 5249,
      "gossip": 5250,
      "gains": 5251,
      "gthens": 5252,
      "hiking": 5253,
      "homeless": 5254,
      "humor": 5255,
      "itheater": 5256,
      "jacket": 5257,
      "jockey": 5258,
      "joked": 5259,
      "jihadist": 5260,
      "lvania": 5261,
      "length": 5262,
      "lady": 5263,
      "laborious": 5264,
      "lunatics": 5265,
      "motives": 5266,
      "miracle": 5267,
      "massive": 5268,
      "mouths": 5269,
      "narrow": 5270,
      "nasal": 5271,
      "nominated": 5272,
      "nudity": 5273,
      "nailing": 5274,
      "oxygen": 5275,
      "passports": 5276,
      "potential": 5277,
      "popular": 5278,
      "papers": 5279,
      "pendence": 5280,
      "pooch": 5281,
      "pounds": 5282,
      "predictable": 5283,
      "precaution": 5284,
      "piece": 5285,
      "pictures": 5286,
      "radicals": 5287,
      "routine": 5288,
      "rock": 5289,
      "rainy": 5290,
      "rueful": 5291,
      "rumble": 5292,
      "ratings": 5293,
      "sinus": 5294,
      "sandboxes": 5295,
      "sunny": 5296,
      "smooth": 5297,
      "scarier": 5298,
      "sweeter": 5299,
      "sensitive": 5300,
      "slowly": 5301,
      "slapped": 5302,
      "stopped": 5303,
      "smiling": 5304,
      "snapped": 5305,
      "twice": 5306,
      "titled": 5307,
      "tamper": 5308,
      "tuned": 5309,
      "tweaked": 5310,
      "tackles": 5311,
      "uploaded": 5312,
      "vacuum": 5313,
      "vulgar": 5314,
      "western": 5315,
      "wizard": 5316,
      "watching": 5317,
      "wallet": 5318,
      "yesterday": 5319,
      "yelling": 5320,
      "yields": 5321,
      "yoga": 5322,
      "third": 5323,
      "thousands": 5324,
      "threatening": 5325,
      "throttling": 5326,
      "installed": 5327,
      "inspired": 5328,
      "independence": 5329,
      "introduce": 5330,
      "inaugural": 5331,
      "inquiry": 5332,
      "incarcerated": 5333,
      "insurgency": 5334,
      "infected": 5335,
      "incomprehensible": 5336,
      "intimidated": 5337,
      "erupted": 5338,
      "anonymity": 5339,
      "reassure": 5340,
      "revealed": 5341,
      "remedies": 5342,
      "represents": 5343,
      "reinvested": 5344,
      "reprise": 5345,
      "relieved": 5346,
      "reprehensible": 5347,
      "reputation": 5348,
      "rewritten": 5349,
      "repugnant": 5350,
      "environment": 5351,
      "touts": 5352,
      "topless": 5353,
      "together": 5354,
      "tolerated": 5355,
      "altercation": 5356,
      "original": 5357,
      "orphanage": 5358,
      "especially": 5359,
      "esoteric": 5360,
      "asleep": 5361,
      "assaulting": 5362,
      "assumed": 5363,
      "heavy": 5364,
      "stabilizing": 5365,
      "stellar": 5366,
      "stipulates": 5367,
      "strode": 5368,
      "strengthens": 5369,
      "academies": 5370,
      "believes": 5371,
      "eligible": 5372,
      "ionship": 5373,
      "adaptations": 5374,
      "veterinary": 5375,
      "churning": 5376,
      "challenges": 5377,
      "amphitheater": 5378,
      "seventh": 5379,
      "whatever": 5380,
      "whacked": 5381,
      "formative": 5382,
      "Theoretically": 5383,
      "improvement": 5384,
      "impartiality": 5385,
      "immature": 5386,
      "impressive": 5387,
      "impunity": 5388,
      "implanting": 5389,
      "impulsive": 5390,
      "hairstyles": 5391,
      "principle": 5392,
      "spewing": 5393,
      "sponsors": 5394,
      "neighbor": 5395,
      "negotiations": 5396,
      "abnormalities": 5397,
      "oppose": 5398,
      "unpleasant": 5399,
      "unscathed": 5400,
      "universal": 5401,
      "unforgivable": 5402,
      "demonstrations": 5403,
      "deeply": 5404,
      "detained": 5405,
      "deployment": 5406,
      "applaud": 5407,
      "apprehended": 5408,
      "suddenly": 5409,
      "sufficiently": 5410,
      "outdoors": 5411,
      "conquer": 5412,
      "confirmed": 5413,
      "conference": 5414,
      "consequences": 5415,
      "congratulating": 5416,
      "convinced": 5417,
      "trajectory": 5418,
      "troubles": 5419,
      "franchise": 5420,
      "allocated": 5421,
      "compatible": 5422,
      "computer": 5423,
      "gehrig38": 5424,
      "occupied": 5425,
      "weighty": 5426,
      "wealthiest": 5427,
      "clumps": 5428,
      "clinicians": 5429,
      "expatriates": 5430,
      "exempt": 5431,
      "exciting": 5432,
      "excelled": 5433,
      "extremists": 5434,
      "exceptional": 5435,
      "shootouts": 5436,
      "shield": 5437,
      "brought": 5438,
      "ultimate": 5439,
      "authenticity": 5440,
      "earnings": 5441,
      "graffiti": 5442,
      "Starting": 5443,
      "Stephen": 5444,
      "Stenson": 5445,
      "overstepping": 5446,
      "overwhelming": 5447,
      "worrisome": 5448,
      "Threats": 5449,
      "Thierry": 5450,
      "redistributed": 5451,
      "affiliate": 5452,
      "prospects": 5453,
      "maximum": 5454,
      "afternoon": 5455,
      "afterwards": 5456,
      "siblings": 5457,
      "Antonio": 5458,
      "Antiquities": 5459,
      "performance": 5460,
      "columnists": 5461,
      "collision": 5462,
      "tabelle": 5463,
      "goalkeeper": 5464,
      "Instagram": 5465,
      "cooperate": 5466,
      "indictment": 5467,
      "mattresses": 5468,
      "surfaced": 5469,
      "surpassed": 5470,
      "newfangled": 5471,
      "recouped": 5472,
      "assistants": 5473,
      "interrogating": 5474,
      "intervening": 5475,
      "helicopters": 5476,
      "Unlawful": 5477,
      "guidelines": 5478,
      "diagnosed": 5479,
      "dislocated": 5480,
      "disappearance": 5481,
      "disbanded": 5482,
      "despicable": 5483,
      "yourselves": 5484,
      "Alternatively": 5485,
      "Newcastle": 5486,
      "achieved": 5487,
      "fixture": 5488,
      "philosophies": 5489,
      "significance": 5490,
      "incredibly": 5491,
      "tournament": 5492,
      "restaurant": 5493,
      "settlement": 5494,
      "Beazley": 5495,
      "respectively": 5496,
      "secretly": 5497,
      "seemingly": 5498,
      "Minnesota": 5499,
      "reception": 5500,
      "Christabelle": 5501,
      "Championship": 5502,
      "Christine": 5503,
      "employed": 5504,
      "emphasis": 5505,
      "struggle": 5506,
      "schedule": 5507,
      "cyberbullying": 5508,
      "unexpected": 5509,
      "properties": 5510,
      "Conspiracy": 5511,
      "Congrats": 5512,
      "chemotherapy": 5513,
      "highlighted": 5514,
      "symptoms": 5515,
      "relaxed": 5516,
      "transgressions": 5517,
      "Adviser": 5518,
      "Archeological": 5519,
      "Manhattan": 5520,
      "Seahawks": 5521,
      "criticisms": 5522,
      "momentous": 5523,
      "punishable": 5524,
      "videotape": 5525,
      "subsequently": 5526,
      "Netherlands": 5527,
      "MINNEAPOLIS": 5528,
      "Mauritanian": 5529,
      "Portuguese": 5530,
      "deliberately": 5531,
      "difficulties": 5532,
      "multidisciplinary": 5533,
      "Barcelona": 5534,
      "Netanyahu": 5535,
      "biography": 5536,
      "dominoes": 5537,
      "harrowing": 5538,
      "microscopic": 5539,
      "tarnishes": 5540,
      "deteriorating": 5541,
      "counterproductive": 5542,
      "anesthesiologists": 5543,
      "Benjamin": 5544,
      "Bafetimbi": 5545,
      "Cotovio": 5546,
      "Jeffrey": 5547,
      "Katznelson": 5548,
      "Kuniko": 5549,
      "Ljungberg": 5550,
      "Maghreb": 5551,
      "Pennsylvania": 5552,
      "Switzerland": 5553,
      "WASHINGTON": 5554
    },
    "merges": [
      "t h",
      "i n",
      "e r",
      "a n",
      "th e",
      "o n",
      "r e",
      "a t",
      "e d",
      "e n",
      "t o",
      "i s",
      "a l",
      "in g",
      "o r",
      "o u",
      "a r",
      "e s",
      "a s",
      "i t",
      "o f",
      "an d",
      "i d",
      "h e",
      "l e",
      "s t",
      "i c",
      "i l",
      "en t",
      "a c",
      "o m",
      "a y",
      "b e",
      "e l",
      "i on",
      "a d",
      "v e",
      "t er",
      "c h",
      "a m",
      "s e",
      "o t",
      "w h",
      "f or",
      "l y",
      "a g",
      "o w",
      "o l",
      "r i",
      "er e",
      "th at",
      "u r",
      "T he",
      "a re",
      "s a",
      "v er",
      "il l",
      "i r",
      "w as",
      "i m",
      "u t",
      "sa id",
      "i g",
      "h a",
      "t s",
      "p r",
      "i th",
      "s p",
      "h is",
      "l d",
      "n e",
      "w ith",
      "a b",
      "m ent",
      "o p",
      "n ot",
      "u n",
      "d e",
      "a p",
      "ou n",
      "ou r",
      "s u",
      "ou t",
      "c on",
      "c e",
      "p l",
      "t r",
      "f r",
      "al l",
      "c om",
      "i f",
      "er s",
      "g e",
      "ha ve",
      "o c",
      "on e",
      "w e",
      "at e",
      "p e",
      "at ion",
      "k e",
      "th er",
      ", \"",
      "t ed",
      "b y",
      "m an",
      "o s",
      ". \"",
      "u st",
      "w ere",
      "m o",
      "ar d",
      "c l",
      "e x",
      "fr om",
      "- -",
      "a in",
      "g h",
      "i an",
      "s h",
      "re s",
      "ic k",
      "el l",
      "en d",
      "wh o",
      "i ve",
      "ou ld",
      "es t",
      "om e",
      "b r",
      "u l",
      "h as",
      "d o",
      "d ay",
      "it y",
      "a u",
      "e ar",
      "ig h",
      "b ut",
      "g r",
      "u e",
      "al s",
      "i a",
      "i v",
      "o o",
      "r an",
      "th is",
      "ac t",
      "S t",
      "p le",
      "i es",
      "o ver",
      "w or",
      "in e",
      "re e",
      "H e",
      "m e",
      "al ly",
      "es s",
      "ow n",
      "oun d",
      "T h",
      "u p",
      "y ou",
      "re d",
      "ar t",
      "2 0",
      "N N",
      "V ick",
      "a f",
      "c t",
      "d on",
      "f o",
      "j ust",
      "l i",
      "p or",
      "s ay",
      "w ill",
      "y ear",
      "an s",
      "ar y",
      "be en",
      "C NN",
      "t im",
      "as t",
      "pl ay",
      "d ing",
      "o ther",
      "t e",
      "u s",
      "the y",
      "ac k",
      "pr o",
      "c an",
      "e w",
      "n ow",
      "q u",
      "ab out",
      "to r",
      "of f",
      "ic e",
      "m a",
      "th ing",
      "at ed",
      "id e",
      "id ent",
      "I t",
      "c ar",
      "t ing",
      "ou s",
      "ac c",
      "ac e",
      "ag e",
      "ig n",
      "op le",
      "af ter",
      "a v",
      "d er",
      "e ver",
      "s i",
      "s ome",
      "w o",
      "w ay",
      "on g",
      "pe ople",
      "A n",
      "h er",
      "h ad",
      "p er",
      "v ed",
      "the ir",
      "ic h",
      "am e",
      "b o",
      "c ol",
      "t a",
      "u b",
      "ou gh",
      "it e",
      "wh ere",
      "g o",
      "m er",
      "m on",
      "t wo",
      "u m",
      "v i",
      "st ate",
      "fo re",
      "I n",
      "c o",
      "c er",
      "c ould",
      "h im",
      "p o",
      "p art",
      "t y",
      "in d",
      "or ding",
      "el y",
      "we e",
      "do g",
      "0 0",
      "L e",
      "f ir",
      "i z",
      "k id",
      "m at",
      "m ed",
      "n o",
      "p res",
      "s ur",
      "it s",
      "ch ar",
      "ne w",
      "say s",
      "B ut",
      "W h",
      "b er",
      "c au",
      "i p",
      "p a",
      "r y",
      "th an",
      "an t",
      "re c",
      "as s",
      "ent s",
      "wh ich",
      "ag ue",
      "als o",
      "oo k",
      "L S",
      "M LS",
      "c our",
      "d id",
      "d own",
      "i al",
      "u d",
      "w ould",
      "in ter",
      "an y",
      "to ld",
      "he l",
      "ion s",
      "ag ain",
      "ill ing",
      "ge t",
      "don or",
      "I ran",
      "U n",
      "W e",
      "b le",
      "c as",
      "d r",
      "e p",
      "e v",
      "f e",
      "g u",
      "l and",
      "l ast",
      "m in",
      "m ay",
      "p are",
      "p os",
      "s o",
      "th ere",
      "is s",
      "is t",
      "wh en",
      "year s",
      "tim e",
      "acc ording",
      "P al",
      "S ch",
      "c ri",
      "d i",
      "g er",
      "h o",
      "m s",
      "r o",
      "s c",
      "re ad",
      "is h",
      "ic al",
      "The y",
      "ne y",
      "mo re",
      "li ke",
      "play ers",
      "fir st",
      "pare n",
      "Pal est",
      "1 9",
      "a w",
      "c k",
      "d is",
      "d es",
      "f er",
      "l o",
      "t en",
      "w ell",
      "y our",
      "in k",
      "in s",
      "in to",
      "the n",
      "re n",
      "sp it",
      "igh t",
      "wor k",
      "again st",
      "A l",
      "N ew",
      "Z ar",
      "b all",
      "g ed",
      "n ing",
      "th ree",
      "on ly",
      "re at",
      "re por",
      "is ts",
      "ou p",
      "ac h",
      "be ing",
      "ter s",
      "con t",
      "ation al",
      "oo d",
      "dog s",
      "hel p",
      "Sch illing",
      "Zar if",
      "b ack",
      "c es",
      "c oun",
      "e t",
      "f i",
      "g in",
      "g ot",
      "m it",
      "o k",
      "p h",
      "p re",
      "r a",
      "s he",
      "s ign",
      "in c",
      "en s",
      "to ur",
      "it ed",
      "be fore",
      "ab le",
      "con d",
      "20 1",
      "state ment",
      "kid ney",
      "pres ident",
      "A s",
      "C ay",
      "a k",
      "f ri",
      "f ive",
      "g en",
      "i ents",
      "l ed",
      "m y",
      "m es",
      "u re",
      "u sh",
      "v ing",
      "w r",
      "w an",
      "in v",
      "in cl",
      "re ed",
      "re st",
      "at t",
      "ar k",
      "ar ch",
      "as ed",
      "it ies",
      "id ge",
      "le ague",
      "se t",
      "ol d",
      "un der",
      "gh t",
      "br idge",
      "gr oup",
      "ever y",
      "An d",
      "cour t",
      "Cay man",
      "A t",
      "B e",
      "a il",
      "b u",
      "e f",
      "f in",
      "f il",
      "f our",
      "f ound",
      "h ow",
      "i le",
      "i ous",
      "j o",
      "m iss",
      "o se",
      "p s",
      "r id",
      "s id",
      "s oc",
      "u ch",
      "y s",
      "th ink",
      "re sp",
      "at er",
      "en ce",
      "is ter",
      "al i",
      "it ion",
      "ic an",
      "om is",
      "se c",
      "se e",
      "ot e",
      "ill ion",
      "tr y",
      "com e",
      "if man",
      "ation s",
      "mo st",
      "ian s",
      "Th at",
      "mon th",
      "Le ifman",
      "cau se",
      "Iran ian",
      "fri end",
      "C C",
      "F rid",
      "I CC",
      "M in",
      "b s",
      "k s",
      "k now",
      "l ow",
      "l ong",
      "m illion",
      "p at",
      "p ow",
      "t on",
      "t wee",
      "w ent",
      "the m",
      "re ce",
      "be cause",
      "wh at",
      "ur n",
      "ur ing",
      "com ple",
      "cl ub",
      "St ate",
      "20 0",
      "ma ke",
      "si x",
      "mat ch",
      "Un ited",
      "ho spit",
      "resp on",
      "Frid ay",
      "A mer",
      "B ush",
      "C h",
      "I s",
      "M on",
      "T e",
      "T his",
      "V ir",
      "b l",
      "b ig",
      "b ook",
      "c ap",
      "e c",
      "e m",
      "f ac",
      "f am",
      "f lo",
      "g es",
      "h ard",
      "h ome",
      "i x",
      "i ver",
      "k ing",
      "l oc",
      "n es",
      "n ational",
      "p ed",
      "r ough",
      "t urn",
      "u ary",
      "w ard",
      "y oun",
      "th ough",
      "an n",
      "re m",
      "re le",
      "at ing",
      "at ch",
      "or t",
      "as e",
      "as h",
      "st r",
      "ent er",
      "ad d",
      "am s",
      "ag reed",
      "ri ed",
      "ri es",
      "de al",
      "ap pe",
      "su sp",
      "tr u",
      "wor ld",
      "fo ot",
      "off ic",
      "ma il",
      "bo d",
      "go ing",
      "vi ew",
      "00 0",
      "rec ip",
      "ev en",
      "Palest in",
      "gin ia",
      "mit ted",
      "inc ident",
      "pow er",
      "Vir ginia",
      "flo or",
      "B r",
      "C is",
      "E v",
      "F ran",
      "F ren",
      "G omis",
      "J an",
      "P e",
      "P h",
      "S o",
      "S at",
      "W ed",
      "a ve",
      "c are",
      "f t",
      "f ul",
      "g ame",
      "i er",
      "j ail",
      "l ess",
      "l ook",
      "m ad",
      "n or",
      "n um",
      "p age",
      "s on",
      "s ent",
      "s el",
      "s ch",
      "t al",
      "t reat",
      "th rough",
      "in ce",
      "an ce",
      "re t",
      "re su",
      "al th",
      "al le",
      "le ft",
      "il ty",
      "ch ain",
      "se arch",
      "wh ile",
      "for m",
      "ag ree",
      "ur day",
      "pr is",
      "pr oc",
      "ne ed",
      "ment s",
      "ment al",
      "man y",
      "mo ved",
      "ex am",
      "ex pe",
      "sh ot",
      "res s",
      "end ed",
      "iv ed",
      "St at",
      "ple a",
      "por t",
      "tor y",
      "po st",
      "ud ge",
      "cas e",
      "gu ilty",
      "paren t",
      "incl u",
      "sid er",
      "pat ients",
      "fam il",
      "nes day",
      "Cis se",
      "Fren ch",
      "Sat urday",
      "Wed nesday",
      "num ber",
      "1 0",
      "C ity",
      "D e",
      "F ace",
      "I f",
      "M i",
      "P ot",
      "R e",
      "S he",
      "a im",
      "a ther",
      "c y",
      "c ed",
      "c ted",
      "d s",
      "f igh",
      "f ree",
      "f ans",
      "g an",
      "g ood",
      "h al",
      "h am",
      "i e",
      "i red",
      "l an",
      "l it",
      "l ap",
      "l if",
      "n am",
      "o th",
      "p t",
      "p it",
      "p ol",
      "p ub",
      "s al",
      "s it",
      "s ard",
      "u ne",
      "v el",
      "w ar",
      "th ose",
      "er al",
      "an g",
      "the se",
      "re ct",
      "at ely",
      "to p",
      "or s",
      "st ar",
      "st ill",
      "ic t",
      "ag o",
      "ag ed",
      "ag es",
      "ri ght",
      "ur s",
      "ut e",
      "ut ion",
      "pr op",
      "ab ly",
      "ment ally",
      "oun t",
      "su p",
      "su re",
      "con sider",
      "com m",
      "we bs",
      "ust r",
      "ard s",
      "me an",
      "just ice",
      "tim es",
      "play er",
      "qu ick",
      "thing s",
      "ous sard",
      "bo th",
      "col on",
      "sur v",
      "char ges",
      "Wh ite",
      "pa ir",
      "inter national",
      "fe el",
      "cri mes",
      "paren ts",
      "Palest ine",
      "des cri",
      "tour ists",
      "ef for",
      "Amer ican",
      "youn g",
      "though t",
      "appe ar",
      "Br oussard",
      "Jan uary",
      "alle ged",
      "proc ed",
      "Face book",
      "Pot ter",
      "hal f",
      "webs ite",
      "2 5",
      "C on",
      "D av",
      "F L",
      "F o",
      "H ou",
      "M o",
      "M ed",
      "N FL",
      "O r",
      "R ome",
      "S an",
      "W or",
      "a h",
      "b es",
      "b ul",
      "c c",
      "c he",
      "c le",
      "c ame",
      "d a",
      "d au",
      "d ue",
      "d uring",
      "f ed",
      "f all",
      "g ive",
      "g iv",
      "g over",
      "h igh",
      "i ed",
      "i ent",
      "i als",
      "i ated",
      "k es",
      "k ill",
      "l l",
      "l ic",
      "m one",
      "m ber",
      "m ark",
      "m uch",
      "n y",
      "o ol",
      "p p",
      "r is",
      "r un",
      "s y",
      "s er",
      "s im",
      "s ide",
      "t le",
      "t ic",
      "t il",
      "t ain",
      "v es",
      "w in",
      "w on",
      "w it",
      "z el",
      "th or",
      "in ary",
      "an zel",
      "re g",
      "re l",
      "re al",
      "at tr",
      "en e",
      "en ces",
      "ing s",
      "ar ound",
      "ar ry",
      "le g",
      "le t",
      "st ep",
      "ac ce",
      "be come",
      "ad mitted",
      "ter ri",
      "ch es",
      "am i",
      "am p",
      "ol low",
      "ri but",
      "op en",
      "op pos",
      "de f",
      "de ad",
      "con tr",
      "tr ans",
      "os s",
      "cl os",
      "cl aim",
      "est ig",
      "do es",
      "St anzel",
      "Th ere",
      "ct ive",
      "li e",
      "te ams",
      "us s",
      "us ed",
      "can cer",
      "tor s",
      "some thing",
      "per i",
      "col lap",
      "ta ke",
      "fore ign",
      "po ly",
      "Le ague",
      "med ia",
      "read y",
      "repor t",
      "coun try",
      "201 4",
      "inv estig",
      "att ack",
      "miss ion",
      "hospit al",
      "Mon day",
      "rele ased",
      "tru ck",
      "foot ball",
      "bod y",
      "Ev ans",
      "resu l",
      "agree ment",
      "Mi ami",
      "lif e",
      "effor ts",
      "proced ure",
      "Dav id",
      "Hou se",
      "dau gh",
      "mone y",
      "ribut ed",
      "A d",
      "A f",
      "A r",
      "B ab",
      "C ali",
      "C enter",
      "F al",
      "G ood",
      "H ol",
      "J on",
      "J une",
      "M an",
      "M al",
      "M ell",
      "M ali",
      "N o",
      "N ational",
      "O n",
      "R ad",
      "R uss",
      "S e",
      "S now",
      "S wan",
      "W atch",
      "a th",
      "b or",
      "b it",
      "c r",
      "c is",
      "c it",
      "d en",
      "e ir",
      "e ach",
      "f act",
      "f ace",
      "f ather",
      "f ollow",
      "g am",
      "h u",
      "h it",
      "i el",
      "i pl",
      "j udge",
      "k er",
      "k ind",
      "l ing",
      "l or",
      "l im",
      "m b",
      "m id",
      "m il",
      "m om",
      "m ess",
      "n ment",
      "n ia",
      "n ess",
      "o d",
      "o g",
      "p un",
      "p ted",
      "s ed",
      "s ol",
      "s ity",
      "s tory",
      "u g",
      "u red",
      "v is",
      "v ide",
      "x t",
      "in j",
      "er t",
      "an ces",
      "re moved",
      "is su",
      "al ready",
      "ou d",
      "ar ing",
      "ar rest",
      "as k",
      "as on",
      "of ten",
      "id ed",
      "le ad",
      "le ast",
      "st ri",
      "il d",
      "il ity",
      "ent ly",
      "be ha",
      "ion al",
      "ad o",
      "ter m",
      "se a",
      "se cond",
      "for mer",
      "for nia",
      "ol ved",
      "ri ver",
      "ur t",
      "The ia",
      "sa w",
      "ver y",
      "ill ip",
      "ha ps",
      "pr of",
      "pr ote",
      "sp ir",
      "sp ok",
      "un til",
      "de vel",
      "de ath",
      "ap parent",
      "su b",
      "ke ep",
      "ther n",
      "mo ve",
      "ex act",
      "ex peri",
      "sh o",
      "sh ould",
      "res ident",
      "ell s",
      "br ing",
      "br other",
      "ul t",
      "igh ts",
      "gr ound",
      "ine au",
      "Th urs",
      "say ing",
      "te m",
      "pro b",
      "pro sec",
      "car s",
      "some times",
      "per haps",
      "col le",
      "In ter",
      "co st",
      "wee k",
      "wee ks",
      "iz ed",
      "kid s",
      "med ical",
      "new s",
      "cau ght",
      "Un iver",
      "ro le",
      "ins ide",
      "work ed",
      "repor ted",
      "cont in",
      "cont ributed",
      "fi el",
      "ph ys",
      "ra el",
      "sign ed",
      "gen er",
      "inv olved",
      "every thing",
      "jo in",
      "ition al",
      "rece ived",
      "Is rael",
      "Te ix",
      "recip ient",
      "Palestin ian",
      "Pe ace",
      "Ph illip",
      "sel f",
      "sch ool",
      "treat ment",
      "pris on",
      "shot s",
      "post ed",
      "inclu ding",
      "lit tle",
      "pol ice",
      "pub lic",
      "sup port",
      "comm un",
      "Med ical",
      "Wor ld",
      "cle ar",
      "fed eral",
      "gover nment",
      "def end",
      "clos er",
      "poly ps",
      "Af ter",
      "Bab ineau",
      "Cali fornia",
      "Fal con",
      "Jon ny",
      "Mell ado",
      "Russ ian",
      "Swan sea",
      "eir a",
      "devel op",
      "Thurs day",
      "Univer sity",
      "Teix eira",
      "Phillip s",
      "3 0",
      "A fr",
      "A ustr",
      "A cc",
      "C l",
      "C an",
      "E b",
      "E ar",
      "G ab",
      "H u",
      "H ere",
      "H arry",
      "K er",
      "K ans",
      "M c",
      "M ary",
      "M arch",
      "N e",
      "O ne",
      "P art",
      "P resident",
      "S c",
      "S h",
      "S oc",
      "T V",
      "T wit",
      "W ash",
      "Y or",
      "Y ou",
      "Y ear",
      "a way",
      "b re",
      "b ed",
      "b ir",
      "c ur",
      "c op",
      "c over",
      "d one",
      "e ct",
      "e ight",
      "e mail",
      "f un",
      "f ine",
      "g one",
      "g ress",
      "h ind",
      "i b",
      "i ally",
      "k en",
      "k illing",
      "l a",
      "l am",
      "l ate",
      "l ine",
      "m en",
      "m is",
      "m ing",
      "m ar",
      "m all",
      "m ary",
      "n in",
      "o ad",
      "p y",
      "p ri",
      "p ers",
      "r u",
      "r or",
      "s w",
      "s ister",
      "s ince",
      "t ri",
      "v en",
      "v ol",
      "w om",
      "w el",
      "w ater",
      "y et",
      "in ation",
      "in mat",
      "er ved",
      "er ty",
      "an al",
      "an im",
      "an ts",
      "an other",
      "the s",
      "on s",
      "on t",
      "on y",
      "re ally",
      "re ign",
      "re fer",
      "re view",
      "at ors",
      "to day",
      "to ward",
      "to ries",
      "is e",
      "ing ton",
      "or der",
      "or ning",
      "or gan",
      "ar ri",
      "es e",
      "es man",
      "he alth",
      "st e",
      "st ran",
      "st age",
      "ic ally",
      "il s",
      "il ar",
      "ac ted",
      "be t",
      "be lie",
      "ad e",
      "ch an",
      "ch ild",
      "am pa",
      "se ason",
      "ot t",
      "for got",
      "ow ed",
      "ol a",
      "ri gh",
      "are a",
      "ut es",
      "ha ving",
      "pr om",
      "his tor",
      "ne ver",
      "ne xt",
      "with out",
      "ab i",
      "op e",
      "su m",
      "con spir",
      "pl an",
      "pl ac",
      "tr ain",
      "fr ont",
      "all ed",
      "com ment",
      "if fe",
      "we aring",
      "pe ace",
      "ke t",
      "os cop",
      "cl iffe",
      "res c",
      "who le",
      "au thor",
      "gr am",
      "act ing",
      "act ion",
      "ple ad",
      "li er",
      "play ing",
      "te en",
      "pro gram",
      "car ried",
      "si b",
      "si ble",
      "ta ken",
      "cer tain",
      "po in",
      "iz e",
      "char ged",
      "Wh at",
      "pa id",
      "pa ired",
      "ass oc",
      "cour se",
      "inter view",
      "any thing",
      "get ting",
      "donor s",
      "dr am",
      "min al",
      "pos ed",
      "ist ic",
      "di rect",
      "sc re",
      "sc ene",
      "pre h",
      "sign ing",
      "cond u",
      "201 3",
      "wr ote",
      "bu y",
      "how ever",
      "jo b",
      "soc ial",
      "Min ister",
      "twee ts",
      "comple te",
      "hospit als",
      "respon d",
      "Is lam",
      "fac ts",
      "loc al",
      "rem ain",
      "str ong",
      "add ed",
      "add itional",
      "susp ended",
      "offic ials",
      "recip ients",
      "Palestin ians",
      "incident s",
      "mad e",
      "nor thern",
      "exam ple",
      "exam ination",
      "expe ct",
      "expe cted",
      "Stat es",
      "Stat ute",
      "famil y",
      "famil ies",
      "ie ty",
      "pit ch",
      "sit es",
      "prop erty",
      "consider ed",
      "giv en",
      "kill ed",
      "sim ilar",
      "leg al",
      "contr ol",
      "trans fer",
      "claim ed",
      "resul t",
      "daugh ter",
      "Good ell",
      "Rad cliffe",
      "Se e",
      "bor n",
      "mid fiel",
      "mom ent",
      "beha vi",
      "spok esman",
      "exact ly",
      "prob ably",
      "commun ity",
      "defend ant",
      "Falcon s",
      "Austr al",
      "Acc ording",
      "Eb ola",
      "Ker ry",
      "Kans as",
      "Mary land",
      "Twit ter",
      "Wash ington",
      "Yor k",
      "bir th",
      "nin th",
      "pers on",
      "sw ap",
      "inmat es",
      "belie ve",
      "forgot ten",
      "righ ts",
      "midfiel der",
      "( $",
      ". .",
      "1 2",
      "1 5",
      "1 8",
      "2 1",
      "3 5",
      "3 r",
      "4 0",
      "5 0",
      "5 5",
      "6 0",
      "6 8",
      "7 0",
      "9 6",
      "B o",
      "B ol",
      "B oth",
      "C am",
      "C ol",
      "C our",
      "C up",
      "D P",
      "D r",
      "E n",
      "E ur",
      "H o",
      "H en",
      "H is",
      "H ap",
      "I l",
      "J o",
      "J ac",
      "J ose",
      "J udge",
      "L a",
      "L ater",
      "M I",
      "M a",
      "M y",
      "M ic",
      "M ur",
      "M iss",
      "N a",
      "O N",
      "P ac",
      "P el",
      "P ap",
      "P ark",
      "P rem",
      "P ort",
      "R aw",
      "R ights",
      "S p",
      "S por",
      "S uch",
      "S ec",
      "T ay",
      "Y our",
      "a ver",
      "b on",
      "b ar",
      "b ad",
      "b ased",
      "c at",
      "c ou",
      "c ation",
      "c ast",
      "c ells",
      "c alled",
      "d an",
      "d at",
      "d ou",
      "d el",
      "d am",
      "d ri",
      "d if",
      "d oc",
      "e as",
      "f l",
      "f ic",
      "f el",
      "f ur",
      "f ell",
      "f ast",
      "f ew",
      "f ind",
      "f fer",
      "g l",
      "g y",
      "g ust",
      "g ian",
      "g est",
      "g reat",
      "g ave",
      "h n",
      "h or",
      "h ic",
      "h urt",
      "i to",
      "i res",
      "i ple",
      "i ately",
      "j or",
      "j ect",
      "l ar",
      "l es",
      "l ant",
      "l aw",
      "l ins",
      "l ight",
      "l ater",
      "m ult",
      "m orning",
      "n ed",
      "n el",
      "n ers",
      "n one",
      "n ame",
      "n ight",
      "o b",
      "o id",
      "o bs",
      "p ur",
      "p ick",
      "p ul",
      "p ack",
      "p ass",
      "r ing",
      "r ul",
      "r ound",
      "r ich",
      "s ing",
      "s of",
      "s ell",
      "s ive",
      "s qu",
      "s ame",
      "s co",
      "s ort",
      "s mall",
      "t es",
      "t ell",
      "t est",
      "t ely",
      "u es",
      "u se",
      "u su",
      "u res",
      "u ters",
      "u tors",
      "v ar",
      "v ir",
      "w n",
      "w all",
      "w ant",
      "x im",
      "y e",
      "y on",
      "y ard",
      "in y",
      "in it",
      "in ches",
      "an es",
      "an sp",
      "an ks",
      "the ms",
      "re qu",
      "re ated",
      "ed u",
      "en se",
      "to ok",
      "to wn",
      "al ive",
      "al ong",
      "it al",
      "it un",
      "it ive",
      "he ad",
      "he ther",
      "le y",
      "st and",
      "st ud",
      "ic ian",
      "il y",
      "il ding",
      "il ities",
      "ent ion",
      "ac y",
      "be l",
      "be came",
      "be hind",
      "el ves",
      "ad v",
      "ve hic",
      "ter n",
      "ter ror",
      "am ong",
      "am ount",
      "se en",
      "se um",
      "wh y",
      "ly ing",
      "ag er",
      "ol is",
      "ur ity",
      "ir l",
      "im med",
      "ut ely",
      "ha pp",
      "pr omis",
      "pr oud",
      "sp at",
      "sp ent",
      "sp ec",
      "ne ap",
      "ab sol",
      "ab itun",
      "un d",
      "un ch",
      "un te",
      "de c",
      "de fin",
      "de term",
      "su ch",
      "su per",
      "con cer",
      "pl ans",
      "tr ad",
      "tr ue",
      "tr ansp",
      "fr ustr",
      "all ow",
      "com ing",
      "com mit",
      "com mitted",
      "com ments",
      "if ic",
      "man aged",
      "os i",
      "os ity",
      "os seum",
      "mo ther",
      "end ing",
      "br ok",
      "ul ar",
      "day s",
      "gr ow",
      "iv ing",
      "iv ely",
      "act iv",
      "act ions",
      "He alth",
      "me mb",
      "own er",
      "Th ese",
      "Th anks",
      "af f",
      "ct ion",
      "te am",
      "pro gress",
      "can not",
      "off ice",
      "ma kes",
      "car ving",
      "acc ess",
      "acc ount",
      "way s",
      "ta king",
      "ta ils",
      "go es",
      "mon y",
      "mon ito",
      "part ic",
      "part ment",
      "fir m",
      "iz ation",
      "sur ger",
      "char ge",
      "ry ing",
      "rec ently",
      "would n",
      "inter est",
      "cas ion",
      "land o",
      "land mark",
      "min ister",
      "min utes",
      "di ed",
      "ro y",
      "read ing",
      "19 7",
      "19 8",
      "19 96",
      "aw n",
      "ck y",
      "dis c",
      "dis gust",
      "ren t",
      "Al l",
      "Al most",
      "coun t",
      "pre lim",
      "ens ion",
      "president ial",
      "As soc",
      "ak ed",
      "wr ap",
      "wr ong",
      "wan ts",
      "incl ud",
      "every one",
      "At lan",
      "Be thes",
      "bu ilding",
      "fil m",
      "fil ed",
      "sid es",
      "ys is",
      "month s",
      "Min neap",
      "twee ted",
      "comple tely",
      "club s",
      "match ing",
      "Mon k",
      "bl ing",
      "ann ed",
      "rele ase",
      "susp ension",
      "offic ial",
      "Fran ce",
      "Fran cis",
      "Ph il",
      "ful l",
      "jail s",
      "tal k",
      "treat y",
      "form ation",
      "inclu de",
      "De partment",
      "Re uters",
      "figh ting",
      "nam es",
      "oth ers",
      "sal ary",
      "ang ing",
      "star ted",
      "mean while",
      "quick ly",
      "colon oscop",
      "surv iv",
      "pair s",
      "feel ing",
      "descri be",
      "25 0",
      "Fo reign",
      "Or lando",
      "fall ing",
      "high er",
      "ris k",
      "tic ket",
      "attr acting",
      "acce pt",
      "acce pted",
      "terri tories",
      "ches ter",
      "oppos ite",
      "collap sed",
      "Hol mes",
      "Man chester",
      "cit iz",
      "hu man",
      "mil it",
      "vis ed",
      "stri ker",
      "prote ctive",
      "apparent ly",
      "sho ot",
      "cost s",
      "reported ly",
      "contin u",
      "phys ician",
      "gener osity",
      "develop ment",
      "Afr ican",
      "Gab by",
      "Mc Il",
      "Sc ott",
      "vol unte",
      "wom en",
      "arri ved",
      "child ren",
      "histor ic",
      "sum mary",
      "conspir ators",
      "train ing",
      "author ities",
      "assoc iated",
      "dram a",
      "condu ct",
      "behavi or",
      "3r d",
      "Col osseum",
      "Cour t",
      "Eur ope",
      "Hap py",
      "Jo hn",
      "Jac obs",
      "Mur abitun",
      "Na ib",
      "Pac ific",
      "Pel osi",
      "Pap iss",
      "Prem ier",
      "Raw lins",
      "Spor ting",
      "Tay lor",
      "cou ple",
      "dam age",
      "fur ther",
      "pick up",
      "rul es",
      "sof t",
      "sco red",
      "usu ally",
      "var ious",
      "thems elves",
      "immed iately",
      "promis ing",
      "absol utely",
      "determ ine",
      "frustr ation",
      "memb ers",
      "monito red",
      "disgust ing",
      "prelim inary",
      "Atlan ta",
      "Bethes da",
      "Minneap olis",
      "Francis co",
      "McIl roy",
      "volunte ers",
      "! \"",
      "\" (",
      ", '",
      ". '",
      "1 3",
      "1 7",
      "3 1",
      "3 8",
      "7 1",
      "A P",
      "A h",
      "A k",
      "A u",
      "A pr",
      "B C",
      "B er",
      "B ar",
      "B el",
      "B ad",
      "B am",
      "B ri",
      "B ill",
      "B ins",
      "B ra",
      "B lan",
      "C om",
      "C ri",
      "C amp",
      "C urt",
      "D s",
      "D an",
      "D on",
      "D en",
      "D oc",
      "D ade",
      "E S",
      "E ye",
      "F O",
      "F e",
      "F or",
      "F ar",
      "F ound",
      "F lor",
      "F abi",
      "G u",
      "G irl",
      "H er",
      "H it",
      "H am",
      "H art",
      "H ink",
      "J er",
      "J am",
      "J os",
      "J ust",
      "J av",
      "K en",
      "L an",
      "L on",
      "L ou",
      "L ong",
      "L ook",
      "L iver",
      "M T",
      "M ar",
      "M ay",
      "M atch",
      "N or",
      "N av",
      "N ever",
      "N et",
      "N ations",
      "O ver",
      "P N",
      "P a",
      "P r",
      "P re",
      "P ho",
      "P ro",
      "P ress",
      "R es",
      "R un",
      "R ich",
      "R ev",
      "R oss",
      "S A",
      "S er",
      "S al",
      "S ha",
      "S ome",
      "S ier",
      "T o",
      "T u",
      "T ot",
      "T our",
      "T oo",
      "T wo",
      "T ony",
      "T ampa",
      "U K",
      "U SA",
      "V er",
      "V ill",
      "W il",
      "W el",
      "W est",
      "a z",
      "a the",
      "a is",
      "a it",
      "a ir",
      "a os",
      "b a",
      "b i",
      "b in",
      "b an",
      "b est",
      "b ound",
      "b us",
      "b att",
      "c or",
      "c ent",
      "c ow",
      "c ere",
      "c ut",
      "c ard",
      "c ess",
      "c av",
      "c enter",
      "d u",
      "d om",
      "d ad",
      "d ance",
      "d ict",
      "d awn",
      "e u",
      "e an",
      "e ter",
      "e igh",
      "e ak",
      "f ar",
      "f ig",
      "f ain",
      "f ight",
      "f reed",
      "f old",
      "f air",
      "g k",
      "g ol",
      "g if",
      "g ia",
      "g ree",
      "g ical",
      "h ar",
      "h and",
      "h ere",
      "h our",
      "h ran",
      "h ide",
      "h ous",
      "h ip",
      "h old",
      "h bar",
      "i re",
      "i ate",
      "i ber",
      "i ble",
      "j ad",
      "j ur",
      "j our",
      "j aw",
      "k i",
      "k n",
      "k ely",
      "k new",
      "l s",
      "l er",
      "l at",
      "l is",
      "l ive",
      "l ist",
      "m al",
      "m ic",
      "m ag",
      "m ain",
      "m ind",
      "m ight",
      "m ix",
      "n u",
      "n oc",
      "n ation",
      "n ine",
      "n ice",
      "n aked",
      "o y",
      "o ke",
      "p en",
      "p al",
      "p ing",
      "p ar",
      "p ay",
      "p ut",
      "p ace",
      "p ho",
      "r ic",
      "r am",
      "r ow",
      "r ol",
      "r ap",
      "r ide",
      "r oss",
      "s an",
      "s to",
      "s es",
      "s le",
      "s ac",
      "s ion",
      "s ha",
      "s ess",
      "s kill",
      "t i",
      "t ar",
      "t ions",
      "t led",
      "t ied",
      "t ured",
      "t reated",
      "u ers",
      "u ally",
      "u tor",
      "u ries",
      "u ced",
      "v al",
      "v ic",
      "v il",
      "v ia",
      "v ice",
      "w ound",
      "w ages",
      "w hether",
      "w ait",
      "y a",
      "y ards",
      "z e",
      "z il",
      "in o",
      "in ic",
      "in ste",
      "in formation",
      "in noc",
      "er a",
      "er ed",
      "an ish",
      "on line",
      "re f",
      "re pe",
      "re act",
      "re min",
      "re comm",
      "re acted",
      "re claimed",
      "re bel",
      "at es",
      "at tem",
      "ed ing",
      "ed ge",
      "ed ul",
      "en ing",
      "en ough",
      "en cour",
      "en ix",
      "en ced",
      "en sible",
      "to s",
      "to uch",
      "is c",
      "is m",
      "is n",
      "is si",
      "is ters",
      "is try",
      "is dict",
      "is vil",
      "al ed",
      "al ke",
      "al tru",
      "al ert",
      "al ways",
      "or ts",
      "ou th",
      "ou ts",
      "ar ter",
      "ar ies",
      "ar ms",
      "ar ily",
      "es cap",
      "as ter",
      "it an",
      "it ely",
      "it able",
      "it ution",
      "id a",
      "id s",
      "id ence",
      "he at",
      "he ld",
      "le ag",
      "le br",
      "st y",
      "st ay",
      "st ag",
      "st ree",
      "st art",
      "st em",
      "ic a",
      "ic s",
      "ent ed",
      "ent ers",
      "ent ial",
      "ac es",
      "ac ts",
      "ac qu",
      "ac tor",
      "ac ross",
      "ay ers",
      "be have",
      "be gin",
      "be gan",
      "be yon",
      "el f",
      "el ess",
      "el ph",
      "ion able",
      "ad or",
      "ad miss",
      "ad elph",
      "ve ill",
      "ch ann",
      "ch anging",
      "ch aos",
      "am ing",
      "se y",
      "se ver",
      "se qu",
      "se ized",
      "se ction",
      "ot ball",
      "for ces",
      "for ward",
      "ag ent",
      "ag ers",
      "ag gr",
      "ol es",
      "ol ve",
      "ol ution",
      "ol og",
      "ri el",
      "ri ate",
      "ri ble",
      "are d",
      "are g",
      "ill ness",
      "ir on",
      "was n",
      "im port",
      "ut iny",
      "ha el",
      "pr ice",
      "pr ayers",
      "ith er",
      "sp ap",
      "sp read",
      "sp ort",
      "sp eak",
      "sp orts",
      "ne t",
      "ne ar",
      "ne cess",
      "with in",
      "ab ility",
      "op er",
      "op tions",
      "de ter",
      "de ce",
      "de ck",
      "de cis",
      "de tails",
      "de gree",
      "ap h",
      "ap pro",
      "ap prop",
      "ap poin",
      "oun ts",
      "su cc",
      "su late",
      "su ffer",
      "out ing",
      "con sc",
      "con front",
      "ce ed",
      "ce mber",
      "ce lebr",
      "pl ace",
      "pl anned",
      "pl oy",
      "tr ol",
      "tr ack",
      "com ed",
      "com es",
      "com pe",
      "com mon",
      "com preh",
      "if y",
      "ge ts",
      "oc ate",
      "oc cur",
      "oc casion",
      "ke y",
      "ke ts",
      "mo vi",
      "cl ash",
      "ex p",
      "ex pl",
      "ex tr",
      "ex pres",
      "ex ten",
      "ex posed",
      "gh es",
      "sh ow",
      "sh owed",
      "res olve",
      "end s",
      "end ances",
      "br ick",
      "br uary",
      "br ave",
      "br ask",
      "br oad",
      "ul ly",
      "ul ate",
      "au di",
      "ear lier",
      "gr at",
      "gr ade",
      "gr aph",
      "iv es",
      "iv il",
      "ran ge",
      "St ar",
      "St even",
      "wor th",
      "wor ried",
      "ine jad",
      "me ans",
      "me et",
      "me mber",
      "own ers",
      "red s",
      "red uced",
      "ct ions",
      "li kely",
      "por ted",
      "por arily",
      "tim id",
      "play ed",
      "te le",
      "us ion",
      "pro ble",
      "pro vide",
      "pro ceed",
      "qu al",
      "qu est",
      "qu arter",
      "ma king",
      "acc ounts",
      "av ing",
      "av ated",
      "av oid",
      "some one",
      "An y",
      "An gk",
      "her o",
      "per form",
      "per mission",
      "bo x",
      "bo ard",
      "ta kes",
      "ub ble",
      "go als",
      "um ped",
      "vi al",
      "vi ous",
      "could n",
      "him self",
      "po ol",
      "ind ust",
      "Le one",
      "iz ing",
      "pres sure",
      "sur pris",
      "sur veill",
      "its elf",
      "new spap",
      "Wh en",
      "Wh ere",
      "Wh ile",
      "rec ent",
      "ass ert",
      "ass ador",
      "did n",
      "cas h",
      "cas es",
      "dr op",
      "dr ink",
      "dr ais",
      "ev idence",
      "fe et",
      "gu ided",
      "min ute",
      "may be",
      "pos sib",
      "pos itive",
      "cri minal",
      "di e",
      "ho le",
      "ro om",
      "ro bes",
      "sc r",
      "ish ed",
      "ish ment",
      "aw are",
      "ck s",
      "dis appoin",
      "des ign",
      "des erved",
      "lo ving",
      "ten ham",
      "spit al",
      "spit ting",
      "work s",
      "work er",
      "work ing",
      "New s",
      "New z",
      "repor ts",
      "ach ing",
      "cont act",
      "coun ter",
      "fi re",
      "fi red",
      "gin a",
      "ph one",
      "pre vious",
      "sign ings",
      "tour ist",
      "cond ition",
      "201 5",
      "kidney s",
      "ak o",
      "gen et",
      "gen cy",
      "ush ed",
      "wr it",
      "wan ted",
      "wan ger",
      "rest ric",
      "rest itution",
      "set tled",
      "every body",
      "At lant",
      "Be fore",
      "Be cky",
      "bu ried",
      "fin al",
      "fin ish",
      "fil ms",
      "jo vial",
      "miss ing",
      "soc cer",
      "soc iety",
      "sec urity",
      "see king",
      "most ly",
      "friend s",
      "twee t",
      "rece ive",
      "rece iving",
      "comple x",
      "200 2",
      "200 7",
      "respon se",
      "respon sib",
      "Ch ene",
      "Te hran",
      "bl ack",
      "big gest",
      "cap ital",
      "ec ts",
      "fac ility",
      "turn s",
      "turn ed",
      "youn ger",
      "ann ah",
      "ase ball",
      "susp ects",
      "bod ia",
      "Ev en",
      "Pe ter",
      "look s",
      "look ing",
      "mad inejad",
      "nor th",
      "sent ence",
      "sent ences",
      "sch edul",
      "tal ented",
      "ret ary",
      "form al",
      "need s",
      "post s",
      "De cember",
      "Re gina",
      "figh ts",
      "figh ters",
      "ham mad",
      "nam ed",
      "rect al",
      "urs es",
      "consider ably",
      "surv ive",
      "surv ived",
      "descri bes",
      "descri bed",
      "alleged ly",
      "Fo otball",
      "Mo st",
      "Mo hammad",
      "Or der",
      "bul ances",
      "che cks",
      "pp i",
      "sy ste",
      "sy stem",
      "ser ies",
      "ser ious",
      "reg ion",
      "reg ards",
      "rel ated",
      "let ter",
      "open ed",
      "open ing",
      "collap sing",
      "football ers",
      "daugh ters",
      "Ad am",
      "Ad ams",
      "Ar abi",
      "Mal ian",
      "Mal ians",
      "follow ing",
      "gam es",
      "gam ble",
      "ipl ied",
      "lim ited",
      "mess age",
      "mess ages",
      "pun ishment",
      "vide o",
      "inj ured",
      "inj uries",
      "issu e",
      "issu es",
      "arrest ed",
      "prote ct",
      "death s",
      "sub st",
      "keep ing",
      "experi ence",
      "experi enced",
      "tem porarily",
      "prosec utors",
      "colle ge",
      "colle ctive",
      "Inter national",
      "Inter net",
      "week end",
      "contin ue",
      "prison ers",
      "Can ad",
      "Ear ly",
      "Ear lier",
      "Hu man",
      "Hu ghes",
      "Ne brask",
      "Part y",
      "Sh iple",
      "Soc cer",
      "Soc iety",
      "bre ak",
      "cur rent",
      "cover ed",
      "cover ing",
      "fun drais",
      "la unch",
      "pri or",
      "ru le",
      "tri al",
      "wel come",
      "wel comed",
      "anal y",
      "anal ysis",
      "anim al",
      "anim als",
      "organ ization",
      "stran ger",
      "bet ter",
      "chan ge",
      "prom pted",
      "plan ning",
      "plac ing",
      "resc ue",
      "resc uers",
      "teen agers",
      "scre aming",
      "buy ing",
      "Islam ic",
      "Islam ist",
      "Austral ian",
      "Austral ians",
      "birth day",
      "Bol ton",
      "Cam bodia",
      "DP s",
      "En gl",
      "Ho spital",
      "Hen ry",
      "Ma jor",
      "Mic hael",
      "Miss issi",
      "Sp anish",
      "Sec retary",
      "dan ger",
      "dat a",
      "dou b",
      "dri ving",
      "dif fer",
      "doc tor",
      "fel t",
      "great er",
      "hor rible",
      "mult iplied",
      "nel s",
      "squ are",
      "tes ts",
      "tell ing",
      "xim ately",
      "init ials",
      "anes the",
      "requ ires",
      "edu cation",
      "stud ent",
      "adv ocate",
      "vehic le",
      "und reds",
      "dec ided",
      "defin itely",
      "super vised",
      "transp lan",
      "brok en",
      "ular ly",
      "progress ed",
      "account ability",
      "partic ularly",
      "surger ies",
      "197 7",
      "count ries",
      "Assoc iated",
      "includ ed",
      "Phil adelph",
      "colonoscop y",
      "surviv al",
      "accept able",
      "citiz ens",
      "milit ants",
      "shoot ing",
      "continu ed",
      "3rd Eye",
      "Ah madinejad",
      "Ak hbar",
      "Au thor",
      "Apr il",
      "Bel gian",
      "Bam ako",
      "Bill board",
      "Bins wanger",
      "Bra zil",
      "Blan k",
      "Cri minal",
      "Dan iel",
      "Den ver",
      "Doc tors",
      "ES PN",
      "FO X",
      "Fe bruary",
      "Far id",
      "Found ation",
      "Flor ida",
      "Fabi us",
      "Jam es",
      "Jav ad",
      "Ken nels",
      "Lan e",
      "Lon don",
      "Lou isvil",
      "Liver pool",
      "Nav al",
      "Pa ul",
      "Pr ince",
      "Pho enix",
      "Pro sec",
      "Rev olution",
      "Ross ell",
      "Sal ve",
      "Sier ra",
      "Tu areg",
      "Tot tenham",
      "Too bin",
      "Ver mes",
      "Vill a",
      "ban k",
      "bound aries",
      "batt led",
      "cere mony",
      "eu than",
      "eigh th",
      "fain ting",
      "freed om",
      "fold ed",
      "gif t",
      "hour s",
      "hous ed",
      "jur isdict",
      "jour ney",
      "kn own",
      "lat est",
      "pen al",
      "pal e",
      "pho tos",
      "san ctions",
      "sto od",
      "sac red",
      "sess ions",
      "skill s",
      "val ue",
      "vic tim",
      "wait ing",
      "inste ad",
      "attem p",
      "altru istic",
      "escap e",
      "leag ues",
      "stay ed",
      "beyon d",
      "admiss ions",
      "chann el",
      "aggr avated",
      "necess ary",
      "dece ased",
      "decis ion",
      "appro ximately",
      "approp riate",
      "succ ess",
      "consc ious",
      "occur red",
      "movi e",
      "proble ms",
      "quarter back",
      "Angk or",
      "surveill ance",
      "newspap er",
      "Atlant ic",
      "Chene y",
      "schedul ed",
      "syste ms",
      "Arabi ya",
      "Nebrask a",
      "Shiple y",
      "fundrais ing",
      "Engl ish",
      "Mississi ppi",
      "Philadelph ia",
      "3rdEye Girl",
      "Louisvil le",
      "jurisdict ion",
      "! !",
      "( @",
      ") \"",
      ") ,",
      ") ,\"",
      "- ,",
      ". ,",
      "1 4",
      "1 00",
      "1 30",
      "1 40",
      "2 2",
      "2 6",
      "2 7",
      "2 8",
      "2 9",
      "3 2",
      "3 4",
      "3 6",
      "4 1",
      "4 2",
      "4 5",
      "5 3",
      "5 4",
      "5 6",
      "5 9",
      "6 1",
      "6 p",
      "6 th",
      "7 00",
      "9 0",
      "A Q",
      "A S",
      "A m",
      "A id",
      "A ir",
      "A ul",
      "A ct",
      "A did",
      "A mb",
      "A MI",
      "A BC",
      "B A",
      "B I",
      "B T",
      "B en",
      "B ay",
      "B ag",
      "B af",
      "B ub",
      "B ens",
      "B arry",
      "B ony",
      "B BC",
      "B alke",
      "B aseball",
      "C o",
      "C ad",
      "C op",
      "C ount",
      "C Ds",
      "C enters",
      "C ivil",
      "D C",
      "D V",
      "D i",
      "D is",
      "D es",
      "D ay",
      "D ick",
      "D ail",
      "D uring",
      "D ipl",
      "D og",
      "D river",
      "D ise",
      "D ON",
      "E 1",
      "E l",
      "E x",
      "E ast",
      "E qu",
      "E di",
      "E ach",
      "E mb",
      "E gy",
      "E AP",
      "E MT",
      "E ither",
      "F A",
      "F C",
      "F a",
      "F in",
      "F at",
      "F ed",
      "F om",
      "F ab",
      "F our",
      "F ive",
      "F igh",
      "F red",
      "F ind",
      "F ather",
      "F ollow",
      "F und",
      "F usion",
      "F BI",
      "G A",
      "G C",
      "G O",
      "G T",
      "G e",
      "G o",
      "G en",
      "G il",
      "G am",
      "G ran",
      "G over",
      "G ary",
      "G iz",
      "G rid",
      "G arry",
      "G MT",
      "G az",
      "H I",
      "H on",
      "H ad",
      "H op",
      "H ome",
      "H ass",
      "H ague",
      "H ud",
      "H ash",
      "H amp",
      "H annah",
      "H undreds",
      "I I",
      "I M",
      "I S",
      "I r",
      "I mag",
      "J B",
      "J u",
      "J ar",
      "J ack",
      "J ew",
      "J ef",
      "J ean",
      "K e",
      "K h",
      "K at",
      "K ar",
      "K ent",
      "K are",
      "K un",
      "K ate",
      "K had",
      "K ak",
      "K ipl",
      "K GO",
      "L j",
      "L is",
      "L es",
      "L au",
      "L ast",
      "L ind",
      "L amp",
      "L ON",
      "L yon",
      "L iber",
      "L IS",
      "M r",
      "M u",
      "M id",
      "M ent",
      "M el",
      "M am",
      "M ag",
      "M os",
      "M ach",
      "M ah",
      "M orning",
      "M ean",
      "M utiny",
      "N an",
      "N ow",
      "N iel",
      "N BA",
      "N GT",
      "O c",
      "O f",
      "O h",
      "O z",
      "O ri",
      "O ther",
      "O ma",
      "O LIS",
      "P l",
      "P u",
      "P y",
      "P er",
      "P at",
      "P en",
      "P ar",
      "P ic",
      "P ol",
      "P ri",
      "P hel",
      "P urn",
      "P GA",
      "Q a",
      "Q u",
      "R i",
      "R o",
      "R u",
      "R y",
      "R or",
      "R ou",
      "R id",
      "R om",
      "R os",
      "R ud",
      "R iver",
      "R oad",
      "S U",
      "S k",
      "S l",
      "S ar",
      "S and",
      "S ay",
      "S am",
      "S ol",
      "S un",
      "S av",
      "S ite",
      "S um",
      "S part",
      "S ep",
      "S ph",
      "S ince",
      "S port",
      "S pit",
      "S wit",
      "S mall",
      "T r",
      "T y",
      "T ou",
      "T ri",
      "T ex",
      "T ub",
      "V as",
      "V ent",
      "V iv",
      "V ice",
      "V eter",
      "W at",
      "W al",
      "W ay",
      "W ill",
      "W hether",
      "W AS",
      "W GC",
      "W SU",
      "Y an",
      "Y es",
      "Z ully",
      "a j",
      "a x",
      "a id",
      "a ur",
      "a ha",
      "a ust",
      "a ution",
      "a head",
      "b al",
      "b ing",
      "b as",
      "b and",
      "b id",
      "b ic",
      "b ag",
      "b ow",
      "b ri",
      "b ur",
      "b ate",
      "b ans",
      "b iz",
      "b ud",
      "b lo",
      "b reed",
      "b illion",
      "b right",
      "b anned",
      "b ubble",
      "b assador",
      "b aseball",
      "c ing",
      "c el",
      "c am",
      "c ir",
      "c ell",
      "c ree",
      "c up",
      "c ry",
      "c reat",
      "c oup",
      "c rest",
      "c ret",
      "c amp",
      "c ially",
      "c ampa",
      "c reated",
      "c rying",
      "c ulate",
      "c ivil",
      "d w",
      "d y",
      "d ed",
      "d it",
      "d le",
      "d ir",
      "d ig",
      "d ate",
      "d ust",
      "d ell",
      "d iv",
      "d ated",
      "d ub",
      "d ial",
      "d ist",
      "d ark",
      "d ang",
      "d den",
      "d river",
      "e y",
      "e le",
      "e ve",
      "e ur",
      "e tim",
      "e per",
      "e mer",
      "e ase",
      "e ye",
      "e ager",
      "e qual",
      "f an",
      "f re",
      "f at",
      "f it",
      "f ill",
      "f ut",
      "f oc",
      "f li",
      "f av",
      "f ever",
      "f ame",
      "f ail",
      "f ash",
      "f ang",
      "f ict",
      "f fic",
      "f isc",
      "g s",
      "g th",
      "g ing",
      "g ar",
      "g le",
      "g ent",
      "g ur",
      "g ers",
      "g os",
      "g ain",
      "g ue",
      "g ber",
      "g land",
      "g then",
      "g ating",
      "g irl",
      "g 38",
      "h i",
      "h re",
      "h ed",
      "h en",
      "h om",
      "h ri",
      "h ies",
      "h over",
      "h um",
      "h att",
      "h ope",
      "h anging",
      "h oles",
      "h undreds",
      "i k",
      "i o",
      "i the",
      "i en",
      "i or",
      "i ac",
      "i ation",
      "i est",
      "i had",
      "i um",
      "i ef",
      "i ations",
      "i ams",
      "j ac",
      "j am",
      "j oc",
      "j ok",
      "j umped",
      "j ihad",
      "k ed",
      "k ies",
      "l v",
      "l en",
      "l id",
      "l ad",
      "l ot",
      "l ab",
      "l un",
      "l igh",
      "l ies",
      "l ack",
      "l ists",
      "l ately",
      "l oss",
      "l oud",
      "l ights",
      "l unch",
      "l iving",
      "l aces",
      "l ives",
      "l ished",
      "m p",
      "m ot",
      "m ir",
      "m ate",
      "m ust",
      "m ity",
      "m ine",
      "m ass",
      "m ning",
      "m ile",
      "m oud",
      "m ask",
      "m owed",
      "m outh",
      "m aster",
      "n er",
      "n ar",
      "n as",
      "n om",
      "n ap",
      "n os",
      "n ant",
      "n ud",
      "n ish",
      "n ists",
      "n ail",
      "n ments",
      "n ie",
      "n sy",
      "n istic",
      "n urses",
      "o x",
      "o on",
      "o ve",
      "o ter",
      "o thing",
      "o ret",
      "o ds",
      "o graph",
      "o rectal",
      "p u",
      "p as",
      "p ic",
      "p ot",
      "p ly",
      "p op",
      "p ap",
      "p end",
      "p has",
      "p oo",
      "p ound",
      "p red",
      "p ast",
      "p ite",
      "p rec",
      "p ark",
      "p ped",
      "p ie",
      "p ict",
      "p ug",
      "p ants",
      "p aving",
      "p umped",
      "p ushed",
      "p urses",
      "r ad",
      "r are",
      "r out",
      "r oc",
      "r ain",
      "r ue",
      "r ice",
      "r ated",
      "r age",
      "r um",
      "r ist",
      "r ating",
      "r ott",
      "r oscop",
      "r ubble",
      "r ushed",
      "s in",
      "s en",
      "s and",
      "s ir",
      "s un",
      "s mo",
      "s ound",
      "s now",
      "s car",
      "s ite",
      "s wee",
      "s ens",
      "s old",
      "s low",
      "s lap",
      "s top",
      "s mil",
      "s tories",
      "s ense",
      "s ending",
      "s ki",
      "s isters",
      "s outh",
      "s kies",
      "s lid",
      "s mile",
      "s nap",
      "t w",
      "t it",
      "t am",
      "t ment",
      "t un",
      "t we",
      "t ack",
      "t ty",
      "t ure",
      "t ations",
      "t rem",
      "t ried",
      "t less",
      "t ress",
      "t une",
      "t ells",
      "t iny",
      "t ention",
      "t endances",
      "u el",
      "u ce",
      "u pl",
      "u ate",
      "u ation",
      "u als",
      "u me",
      "u um",
      "u gu",
      "u ments",
      "u cky",
      "u ids",
      "v ac",
      "v ere",
      "v ul",
      "v ies",
      "v ass",
      "v inc",
      "v ote",
      "v ided",
      "v ention",
      "w er",
      "w es",
      "w are",
      "w iz",
      "w inter",
      "w hel",
      "w ins",
      "w ks",
      "w atch",
      "w ave",
      "w ince",
      "w alle",
      "w ise",
      "w owed",
      "x pe",
      "x ious",
      "x ually",
      "y ing",
      "y es",
      "y ell",
      "y gen",
      "y right",
      "y cle",
      "y iel",
      "y og",
      "y nistic",
      "z er",
      "z ed",
      "z ens",
      "z nel",
      "th ur",
      "th ir",
      "th ous",
      "th reat",
      "th ood",
      "th ods",
      "th rott",
      "in x",
      "in ed",
      "in al",
      "in es",
      "in st",
      "in ent",
      "in ch",
      "in sp",
      "in de",
      "in tr",
      "in au",
      "in qu",
      "in ated",
      "in car",
      "in sur",
      "in fe",
      "in justice",
      "in compreh",
      "in timid",
      "in definitely",
      "in appropriate",
      "in mate",
      "er as",
      "er ation",
      "er ally",
      "er up",
      "er ta",
      "er ial",
      "er ves",
      "er bate",
      "er oon",
      "an is",
      "an ing",
      "an ch",
      "an ity",
      "an ia",
      "an age",
      "an ced",
      "an ah",
      "an ony",
      "an oid",
      "the less",
      "on a",
      "on en",
      "on ment",
      "on ies",
      "on light",
      "re ar",
      "re es",
      "re as",
      "re ve",
      "re ly",
      "re med",
      "re pres",
      "re ach",
      "re inv",
      "re set",
      "re think",
      "re turn",
      "re ase",
      "re search",
      "re pris",
      "re lie",
      "re ason",
      "re join",
      "re action",
      "re preh",
      "re ject",
      "re put",
      "re writ",
      "re pug",
      "at or",
      "at us",
      "at uring",
      "at ically",
      "at ively",
      "at ics",
      "ed a",
      "ed ad",
      "en ed",
      "en to",
      "en es",
      "en ger",
      "en ges",
      "en cy",
      "en vir",
      "en cing",
      "to o",
      "to ut",
      "to pl",
      "to ge",
      "to vi",
      "to ms",
      "to ured",
      "to ler",
      "is ed",
      "is ion",
      "is sa",
      "is ha",
      "is ms",
      "is ition",
      "al ter",
      "al one",
      "al ian",
      "al em",
      "al gia",
      "or ig",
      "or ity",
      "or ite",
      "or ph",
      "or ious",
      "or ds",
      "or gia",
      "ou bl",
      "ou da",
      "ar n",
      "ar itan",
      "ar gue",
      "ar rely",
      "es pe",
      "es ted",
      "es oter",
      "as le",
      "as sa",
      "as su",
      "as ia",
      "as ant",
      "it i",
      "it ic",
      "it ter",
      "it age",
      "it ions",
      "it ical",
      "it ness",
      "it utes",
      "and s",
      "id el",
      "id isc",
      "id uals",
      "he ar",
      "he ver",
      "he ard",
      "he art",
      "he av",
      "le ted",
      "le ave",
      "le vel",
      "le aving",
      "le aning",
      "le arn",
      "st er",
      "st on",
      "st el",
      "st ab",
      "st ell",
      "st ip",
      "st ro",
      "st ren",
      "st ress",
      "st aged",
      "st aff",
      "st atus",
      "st algia",
      "st itutes",
      "ic it",
      "ic op",
      "ic als",
      "ic ine",
      "ic ans",
      "ic ated",
      "ic ide",
      "ic ating",
      "ic ago",
      "ic hever",
      "il es",
      "il os",
      "il legal",
      "il izing",
      "ent y",
      "ent ice",
      "ent ire",
      "ac ed",
      "ac le",
      "ac ad",
      "ac ter",
      "ac ial",
      "ac ious",
      "ac iated",
      "ac erbate",
      "om acy",
      "be at",
      "be ts",
      "be li",
      "be low",
      "be long",
      "be half",
      "be coming",
      "be comes",
      "be gs",
      "el ig",
      "el ine",
      "ion ed",
      "ion sh",
      "ad s",
      "ad er",
      "ad es",
      "ad ap",
      "ad age",
      "ad mission",
      "ad ult",
      "ad ium",
      "ad uate",
      "ve t",
      "ve y",
      "ve ter",
      "ve ment",
      "ve mber",
      "ter day",
      "ch u",
      "ch ur",
      "ch all",
      "ch art",
      "ch ased",
      "am an",
      "am ber",
      "am ph",
      "am ba",
      "am bulances",
      "am bassador",
      "se where",
      "se ven",
      "se ize",
      "se vere",
      "se xually",
      "ot a",
      "ot s",
      "ot ap",
      "ot ted",
      "ot est",
      "wh ate",
      "wh ack",
      "wh ite",
      "for th",
      "for ce",
      "for man",
      "for ting",
      "for mat",
      "for med",
      "for ms",
      "for ced",
      "for giv",
      "for given",
      "for tune",
      "ag ant",
      "ag ents",
      "ag nos",
      "ag rees",
      "ag ency",
      "ow ds",
      "ol ating",
      "ol ences",
      "ri k",
      "ri ates",
      "ri pped",
      "ere e",
      "ur a",
      "ur ged",
      "ur ges",
      "ur bed",
      "ur itan",
      "The ir",
      "The oret",
      "are s",
      "are as",
      "sa ve",
      "sa fe",
      "sa ves",
      "ver ify",
      "ill ac",
      "ir s",
      "ir y",
      "ir ts",
      "ir ley",
      "ir sty",
      "was hed",
      "im i",
      "im al",
      "im pro",
      "im part",
      "im mat",
      "im pres",
      "im ages",
      "im pun",
      "im plan",
      "im pul",
      "im eter",
      "ut ally",
      "ig ue",
      "ig ious",
      "ha irsty",
      "pr inc",
      "pr otest",
      "sp ell",
      "sp end",
      "sp ew",
      "sp ace",
      "sp its",
      "sp lit",
      "sp ells",
      "sp ons",
      "sp oke",
      "sp aces",
      "sp acial",
      "sp otted",
      "his tory",
      "ne igh",
      "ne ck",
      "ne got",
      "ne ither",
      "ab nor",
      "ab use",
      "ab bing",
      "ment ion",
      "op po",
      "op ens",
      "op hies",
      "not e",
      "not es",
      "un ple",
      "un just",
      "un sc",
      "un ged",
      "un iver",
      "un clear",
      "un usually",
      "un acceptable",
      "un folded",
      "un conscious",
      "un fit",
      "un gber",
      "un forgiv",
      "de ed",
      "de but",
      "de mon",
      "de ep",
      "de tain",
      "de ploy",
      "de ported",
      "de mning",
      "de tention",
      "de leted",
      "ap y",
      "ap pl",
      "ap preh",
      "oun ced",
      "our ish",
      "su ited",
      "su dden",
      "su ffic",
      "su icide",
      "out do",
      "out line",
      "out cry",
      "out rage",
      "con qu",
      "con fir",
      "con fer",
      "con sequ",
      "con sulate",
      "con grat",
      "con vinc",
      "con demning",
      "ce ived",
      "ce pt",
      "pl ed",
      "pl ing",
      "pl enty",
      "pl unged",
      "tr ust",
      "tr ict",
      "tr aj",
      "tr oubl",
      "fr anch",
      "fr itter",
      "all oc",
      "com pat",
      "com posed",
      "com pu",
      "com forting",
      "if ican",
      "ge o",
      "ge ons",
      "ge hri",
      "oc ide",
      "oc ks",
      "oc aust",
      "oc cup",
      "we en",
      "we igh",
      "we alth",
      "we ather",
      "ate gy",
      "pe ak",
      "ke es",
      "ther land",
      "man ager",
      "mo del",
      "mo vies",
      "mo irs",
      "ard ed",
      "ard ing",
      "ard ian",
      "ard ice",
      "cl ing",
      "cl um",
      "cl ass",
      "cl ose",
      "cl inic",
      "cl othing",
      "cl amber",
      "cl ocks",
      "ex ists",
      "ex pat",
      "ex em",
      "ex cit",
      "ex change",
      "ex cell",
      "ex trem",
      "ex acerbate",
      "ex cept",
      "ain ed",
      "sh are",
      "sh ut",
      "sh als",
      "sh oo",
      "sh ame",
      "sh ort",
      "sh iel",
      "sh aring",
      "sh outs",
      "sh ared",
      "sh irts",
      "res erved",
      "who se",
      "est ic",
      "br ough",
      "br ush",
      "br ings",
      "br oke",
      "br aced",
      "br utally",
      "ul ts",
      "ul tim",
      "ul ting",
      "ul ating",
      "ul ates",
      "has n",
      "do zens",
      "au d",
      "au then",
      "ear ly",
      "ear ning",
      "gr ay",
      "gr own",
      "gr ave",
      "gr aff",
      "gr aduate",
      "gr abbing",
      "iv as",
      "iv ities",
      "iv onen",
      "iv ision",
      "iv iduals",
      "act ually",
      "St art",
      "St ep",
      "St ens",
      "St ampa",
      "St aff",
      "St eve",
      "St adium",
      "ple ase",
      "over all",
      "over due",
      "over step",
      "over protective",
      "over whel",
      "wor d",
      "wor st",
      "wor se",
      "wor ry",
      "wor ds",
      "wor ris",
      "wor rying",
      "ine a",
      "He y",
      "He ad",
      "me al",
      "me thods",
      "me moirs",
      "ess ing",
      "ess ment",
      "ess ional",
      "ess ential",
      "own s",
      "own ing",
      "Th en",
      "Th ree",
      "Th ough",
      "Th reat",
      "Th ier",
      "up on",
      "up set",
      "up right",
      "up dated",
      "red ist",
      "red ib",
      "art istic",
      "20 th",
      "20 20",
      "NN EAP",
      "af t",
      "af fil",
      "don ation",
      "don ated",
      "fo ster",
      "li ver",
      "li kes",
      "por n",
      "por ter",
      "por ters",
      "will ing",
      "ans ive",
      "ans wer",
      "tim eline",
      "other wise",
      "te e",
      "te mber",
      "us ing",
      "us ers",
      "us ional",
      "us alem",
      "pro of",
      "pro spec",
      "pro du",
      "pro vided",
      "can ing",
      "can vass",
      "ew itness",
      "qu it",
      "qu ite",
      "qu ities",
      "tor tured",
      "off er",
      "off ense",
      "off ending",
      "off ered",
      "ma jor",
      "ma xim",
      "ated ly",
      "ide a",
      "ide mic",
      "It alian",
      "car ve",
      "car rying",
      "acc eding",
      "after no",
      "after ward",
      "av i",
      "av o",
      "av el",
      "av agant",
      "der ing",
      "si p",
      "si bl",
      "si bling",
      "si ze",
      "si olog",
      "wo ol",
      "An other",
      "An ton",
      "An ti",
      "An imal",
      "per ate",
      "per cent",
      "per forman",
      "per ceived",
      "ame ter",
      "bo y",
      "bo ys",
      "bo ots",
      "col d",
      "col um",
      "col league",
      "col lis",
      "col orectal",
      "ta bel",
      "where ver",
      "go alke",
      "mer ce",
      "mer cy",
      "mon d",
      "mon ies",
      "um mer",
      "vi le",
      "vi olating",
      "In stag",
      "In stitutes",
      "In deed",
      "co in",
      "co is",
      "co ach",
      "co oper",
      "co vey",
      "cer ated",
      "cer ned",
      "part y",
      "part ies",
      "part ially",
      "part ners",
      "ty pe",
      "ind led",
      "ind ict",
      "ind ividuals",
      "dog fighting",
      "Le ader",
      "mat i",
      "mat ter",
      "mat tress",
      "mat erial",
      "med ic",
      "no d",
      "no xious",
      "no stalgia",
      "pres ence",
      "sur fac",
      "sur real",
      "sur pass",
      "sur gical",
      "sur geons",
      "char ts",
      "char ms",
      "char ities",
      "char itable",
      "char ging",
      "char acter",
      "new ly",
      "new fang",
      "Wh y",
      "Wh ichever",
      "ber bul",
      "cau sed",
      "cau sing",
      "cau ses",
      "ip ating",
      "than k",
      "ant i",
      "ant ive",
      "rec over",
      "rec tor",
      "rec oup",
      "rec ords",
      "ass y",
      "ass ic",
      "ass ist",
      "ass essment",
      "down ward",
      "ial ity",
      "inter state",
      "inter ro",
      "inter ven",
      "any ah",
      "hel icop",
      "Un law",
      "Un ivision",
      "ble eding",
      "cas ters",
      "cas ino",
      "dr aw",
      "dr ug",
      "dr awn",
      "dr ove",
      "dr owning",
      "dr aft",
      "dr ummer",
      "ep ing",
      "ep idemic",
      "ev es",
      "ev ent",
      "ev ents",
      "ev eless",
      "fe es",
      "fe aturing",
      "gu y",
      "gu ard",
      "gu ide",
      "gu ys",
      "gu ards",
      "gu idel",
      "land e",
      "land ed",
      "min ed",
      "min isters",
      "min istry",
      "pare s",
      "pos es",
      "pos ition",
      "pos sible",
      "so on",
      "so ap",
      "so ever",
      "there fore",
      "Sch ool",
      "Sch oles",
      "di ers",
      "di agnos",
      "di ameter",
      "di rector",
      "sc ary",
      "sc outing",
      "sc ares",
      "ish ly",
      "ish man",
      "paren thood",
      "19 15",
      "19 55",
      "19 60",
      "19 59",
      "19 61",
      "aw arded",
      "ck ham",
      "dis loc",
      "dis agreed",
      "dis appear",
      "dis charged",
      "dis aster",
      "dis band",
      "dis ease",
      "des ire",
      "des pic",
      "des erves",
      "des perate",
      "lo st",
      "lo ved",
      "lo gical",
      "your s",
      "your sel",
      "your self",
      "ins ists",
      "ins ights",
      "Al though",
      "Al tern",
      "Al avi",
      "New cast",
      "New town",
      "ball s",
      "repor ters",
      "ach ie",
      "cont ents",
      "cont acted",
      "help ed",
      "back ed",
      "back up",
      "back pack",
      "back drop",
      "coun ty",
      "coun sel",
      "et mar",
      "fi e",
      "fi x",
      "fi le",
      "fi xt",
      "got s",
      "ph ilos",
      "pre trial",
      "pre tty",
      "pre pares",
      "ra h",
      "ra ise",
      "ra ils",
      "ra ised",
      "she er",
      "sign s",
      "sign ifican",
      "inc rease",
      "inc redib",
      "ens ively",
      "tour nam",
      "tour ism",
      "cond itions",
      "cond olences",
      "201 2",
      "statement s",
      "ak i",
      "fri ed",
      "gen eral",
      "gen ocide",
      "incl usion",
      "rest aur",
      "att ention",
      "att ends",
      "att endances",
      "ark ably",
      "set tle",
      "under going",
      "under mine",
      "under graduate",
      "every where",
      "At tendances",
      "Be ach",
      "Be hind",
      "Be az",
      "Be ckham",
      "bu ne",
      "ef ings",
      "ef ully",
      "fin ed",
      "fin als",
      "fin ally",
      "fin ances",
      "fil ing",
      "fil med",
      "four th",
      "found ing",
      "found ation",
      "think ing",
      "resp ect",
      "ali ation",
      "sec uring",
      "sec ret",
      "see ing",
      "see ms",
      "see ming",
      "try ing",
      "friend ly",
      "Min nes",
      "Min istry",
      "Min ority",
      "long er",
      "pow ers",
      "ton ight",
      "twee ting",
      "rece pt",
      "what soever",
      "comple ting",
      "200 1",
      "200 3",
      "200 4",
      "200 8",
      "200 9",
      "match es",
      "respon sible",
      "respon ses",
      "Amer ica",
      "Amer icans",
      "Ch est",
      "Ch ris",
      "Ch amp",
      "Ch ief",
      "Ch rist",
      "Ch icago",
      "Ch ivas",
      "Te am",
      "Te aching",
      "bl ame",
      "bl ood",
      "big ger",
      "book s",
      "cap tured",
      "ec tory",
      "em ies",
      "em ploy",
      "em phas",
      "em aciated",
      "fac tors",
      "fac ilities",
      "fam ed",
      "home town",
      "loc als",
      "loc ations",
      "loc ker",
      "loc ked",
      "rough ly",
      "ann ounced",
      "rem arkably",
      "atch ed",
      "str ing",
      "str ay",
      "str ations",
      "str ug",
      "str ategy",
      "enter ing",
      "add s",
      "appe aled",
      "appe ared",
      "tru ly",
      "foot age",
      "offic er",
      "offic ially",
      "bod ily",
      "view ers",
      "even ing",
      "Br avo",
      "Fran k",
      "Fran cois",
      "Pe ople",
      "care er",
      "care ers",
      "less ly",
      "less ons",
      "look ed",
      "sent encing",
      "sel fie",
      "sch edu",
      "tal e",
      "tal es",
      "tal ents",
      "ret ion",
      "ret ired",
      "ret aliation",
      "resu me",
      "resu ming",
      "chain s",
      "search ers",
      "form ally",
      "agree ments",
      "proc essing",
      "need ed",
      "sider ing",
      "De tails",
      "De mati",
      "Mi ke",
      "Re aching",
      "Re porter",
      "cy cling",
      "cy berbul",
      "gan ization",
      "ham i",
      "ham mer",
      "lit erally",
      "lif ting",
      "nam ics",
      "pol ished",
      "pol itical",
      "pub lished",
      "sal e",
      "sal es",
      "sal acious",
      "sit ting",
      "sit uation",
      "une xpe",
      "vel ing",
      "war m",
      "war ned",
      "war ring",
      "ang le",
      "ang el",
      "top pled",
      "star s",
      "ict able",
      "prop ert",
      "sup posed",
      "sup porters",
      "both ers",
      "pair ing",
      "feel s",
      "effor t",
      "appear s",
      "proced ures",
      "Con spir",
      "Con sulate",
      "Con trol",
      "Con grat",
      "Con cerned",
      "Con sidering",
      "Fo e",
      "Mo re",
      "Mo onlight",
      "Med icine",
      "Or ganization",
      "Wor king",
      "bes ide",
      "bul l",
      "bul ly",
      "bul ls",
      "che er",
      "che ap",
      "che mother",
      "che olog",
      "da zed",
      "fed s",
      "giv es",
      "gover ning",
      "high ligh",
      "ient ly",
      "lic ense",
      "mark ed",
      "pp ing",
      "ris e",
      "run s",
      "sy mp",
      "ser ve",
      "ser ved",
      "sim ple",
      "sim ply",
      "tic ity",
      "tic kets",
      "til ted",
      "win ning",
      "win ners",
      "win ner",
      "won dering",
      "wit ness",
      "reg ional",
      "reg arding",
      "rel ation",
      "rel ations",
      "rel ax",
      "rel igious",
      "real ized",
      "attr act",
      "attr acted",
      "attr acts",
      "leg ally",
      "let ters",
      "step ped",
      "terri ers",
      "terri tory",
      "terri fic",
      "oppos ed",
      "oppos ing",
      "oppos ition",
      "def ensively",
      "dead ly",
      "dead line",
      "contr act",
      "contr acts",
      "trans gress",
      "trans formation",
      "clos ed",
      "claim s",
      "uss ions",
      "cancer ous",
      "peri od",
      "collap se",
      "take over",
      "poly graph",
      "investig ate",
      "investig ation",
      "investig ated",
      "investig ations",
      "investig ating",
      "investig ators",
      "attack ing",
      "mission er",
      "resul ts",
      "resul ted",
      "Ad vis",
      "Ar ound",
      "Ar thur",
      "Ar cheolog",
      "Hol ocaust",
      "Hol lande",
      "Man hatt",
      "Man aman",
      "Mal ki",
      "No thing",
      "No where",
      "No vember",
      "Rad nor",
      "Se aha",
      "cr oss",
      "cr uel",
      "cr itic",
      "cr owds",
      "cr owns",
      "cit es",
      "den ed",
      "den ial",
      "den ied",
      "den ying",
      "fact ions",
      "follow ed",
      "gam bling",
      "hu a",
      "hu ge",
      "ipl inary",
      "ling er",
      "mid dle",
      "mil es",
      "mom ento",
      "mess enger",
      "od ds",
      "od uce",
      "og ynistic",
      "pun dit",
      "pun isha",
      "sol ution",
      "sol diers",
      "ug al",
      "ug ly",
      "vis ion",
      "vide otap",
      "inj uring",
      "issu ed",
      "arrest s",
      "ask ed",
      "lead s",
      "lead er",
      "lead ers",
      "stri ke",
      "stri pping",
      "beha ving",
      "second s",
      "river bank",
      "prof it",
      "prof itable",
      "prof anity",
      "prof iles",
      "prof essional",
      "spok en",
      "sub mit",
      "sub ject",
      "sub sequ",
      "experi ences",
      "sho re",
      "sho es",
      "should n",
      "bring ing",
      "ult ies",
      "tem ple",
      "prob ity",
      "prosec ute",
      "prosec ution",
      "prosec utor",
      "colle ction",
      "Inter state",
      "week ly",
      "fiel d",
      "phys ical",
      "phys ically",
      "gener ally",
      "gener ous",
      "join ing",
      "Israel i",
      "Israel is",
      "self lessly",
      "prison er",
      "public ist",
      "commun icating",
      "defend er",
      "After ward",
      "develop s",
      "develop ed",
      "Afr ica",
      "Cl ub",
      "Cl ash",
      "Cl inic",
      "Cl assic",
      "Can cer",
      "Gab riel",
      "Mc Manaman",
      "Ne ild",
      "Ne therland",
      "Part ners",
      "Sc enes",
      "Sh are",
      "Sh irley",
      "bre ach",
      "bre athe",
      "fun d",
      "fun ds",
      "la ke",
      "la under",
      "mis take",
      "mis behave",
      "mis guided",
      "mis ogynistic",
      "mar kets",
      "mar izing",
      "mar veling",
      "oad ed",
      "pri me",
      "pri mary",
      "ru ins",
      "ru ined",
      "tri be",
      "tri pling",
      "ven ue",
      "ven ues",
      "vol ume",
      "wom an",
      "water proof",
      "thes ia",
      "ons or",
      "reign ing",
      "refer red",
      "refer ence",
      "refer ring",
      "review ing",
      "toward s",
      "order ed",
      "organ ized",
      "arri ve",
      "stran ge",
      "stran gers",
      "bet ween",
      "chan ted",
      "chan ged",
      "prom ote",
      "prom inent",
      "histor ical",
      "sum mer",
      "conspir acy",
      "plac ed",
      "plac es",
      "comment ator",
      "teen age",
      "teen ager",
      "program me",
      "program mer",
      "program ming",
      "certain ly",
      "poin t",
      "poin ted",
      "assoc iate",
      "interview s",
      "interview er",
      "dram atically",
      "direct ly",
      "direct ions",
      "scre ens",
      "scre ened",
      "condu cted",
      "respond ents",
      "remain s",
      "remain ed",
      "remain ing",
      "strong ly",
      "expect ant",
      "expect ations",
      "pitch er",
      "control led",
      "control ling",
      "behavi our",
      "swap ping",
      ".. .",
      "12 3rd",
      "68 3",
      "68 5",
      "Bo y",
      "Bo ys",
      "Bo ston",
      "Bol ten",
      "Cam eroon",
      "En gland",
      "Ho stel",
      "Hen rik",
      "La ke",
      "La ura",
      "MI AMI",
      "MI NNEAP",
      "Ma uritan",
      "Mic hel",
      "Port ions",
      "Port ugu",
      "Port ugal",
      "Sp onsor",
      "Sec urity",
      "aver se",
      "aver age",
      "aver aged",
      "bon es",
      "bon us",
      "bad ly",
      "cat s",
      "dan cer",
      "dat es",
      "dou h",
      "del iber",
      "del usional",
      "dri ve",
      "dif fic",
      "doc uments",
      "eas y",
      "eas ier",
      "eas tern",
      "fl ick",
      "fl uids",
      "fl ourish",
      "fel onies",
      "fell ow",
      "fast balls",
      "gl are",
      "gian ts",
      "hor ror",
      "hurt ful",
      "ject ionable",
      "lar ge",
      "lar ger",
      "lar gest",
      "light ly",
      "light ning",
      "mult idisc",
      "ob scene",
      "ob noxious",
      "ob jectionable",
      "pur ported",
      "pur chased",
      "pur poses",
      "pul led",
      "pul ling",
      "pack ed",
      "rich es",
      "rich ly",
      "rich est",
      "sell er",
      "squ ads",
      "tes ted",
      "test ing",
      "test ify",
      "vir al",
      "vir us",
      "wall s",
      "init ially",
      "anes thesia",
      "requ ired",
      "stand s",
      "stand ard",
      "stand ards",
      "stud ents",
      "adv anced",
      "vehic les",
      "terror ist",
      "terror ize",
      "terror ism",
      "among st",
      "happ en",
      "happ ens",
      "happ ening",
      "spec ial",
      "spec ulate",
      "dec ades",
      "defin ition",
      "concer t",
      "concer ning",
      "concer ned",
      "trad ing",
      "trad es",
      "trad itional",
      "transp lant",
      "allow s",
      "commit ments",
      "commit tee",
      "brok ered",
      "grow th",
      "grow ing",
      "activ ity",
      "activ ists",
      "activ ities",
      "access ion",
      "account able",
      "partic ipating",
      "firm ly",
      "surger y",
      "casion ally",
      "197 9",
      "198 1",
      "198 4",
      "198 8",
      "disc retion",
      "disc ussions",
      "Assoc iation",
      "wrap s",
      "wrap ped",
      "wrong s",
      "includ es",
      "colonoscop ies",
      "surviv or",
      "accept ance",
      "citiz en",
      "human e",
      "human ity",
      "milit ant",
      "continu ing",
      "Scott ish",
      "Europe an",
      "soft ball",
      "soft ware",
      "members hip",
      ",' \"",
      "38 th",
      "Ber nie",
      "Ber linger",
      "Bar ney",
      "Bar cel",
      "Bri an",
      "Bri en",
      "Com merce",
      "Com missioner",
      "Don ors",
      "For mer",
      "For bes",
      "Gu ardian",
      "Gu inea",
      "Her itage",
      "Ham as",
      "Ham ann",
      "Jer sey",
      "Jer usalem",
      "Jos h",
      "Jos hua",
      "Just ice",
      "Look ing",
      "Mar c",
      "Mar shals",
      "May o",
      "May be",
      "Match Grid",
      "Nor th",
      "Nor thern",
      "Never theless",
      "Net work",
      "Net anyah",
      "Pre ah",
      "Pre vention",
      "Res erved",
      "Res ults",
      "Rich ard",
      "Rich mond",
      "Ser ies",
      "Ser vice",
      "Sha h",
      "Sha ffer",
      "Some thing",
      "Some times",
      "To ivonen",
      "Wil son",
      "Wil fried",
      "Wel sh",
      "Wel ton",
      "athe d",
      "bi ograph",
      "cor rect",
      "cor respondents",
      "cent imeter",
      "cow ards",
      "cow ardice",
      "cut ting",
      "card ed",
      "card iac",
      "cav ed",
      "cav ity",
      "du al",
      "dom ino",
      "dom estic",
      "dad s",
      "far m",
      "fig ure",
      "fig ures",
      "gol f",
      "gol fer",
      "har mony",
      "har row",
      "hand ing",
      "hand ful",
      "here in",
      "lis ted",
      "mal ities",
      "mal contents",
      "mic roscop",
      "mag gots",
      "main tain",
      "mix ture",
      "nu de",
      "nu clear",
      "par anoid",
      "ram ids",
      "rol led",
      "rap e",
      "rap id",
      "sle eping",
      "sle eveless",
      "sha h",
      "sha pe",
      "ti tor",
      "tar get",
      "tar nish",
      "wound s",
      "wound ed",
      "innoc ent",
      "innoc ently",
      "ref ers",
      "ref eree",
      "repe at",
      "repe atedly",
      "remin ding",
      "remin der",
      "recomm ended",
      "recomm ends",
      "encour age",
      "encour ages",
      "outs ide",
      "sty le",
      "stag ger",
      "stree t",
      "stree ts",
      "acqu ires",
      "acqu isition",
      "begin ning",
      "sever al",
      "sever ely",
      "illness es",
      "import ant",
      "import ance",
      "speak ing",
      "near by",
      "oper ations",
      "deter ior",
      "deter mined",
      "suffer ed",
      "suffer ing",
      "confront ation",
      "confront ations",
      "celebr ity",
      "celebr ating",
      "trol ls",
      "track ing",
      "compe te",
      "compe titor",
      "common ly",
      "compreh end",
      "occasion ally",
      "exp el",
      "exp ansive",
      "expl icit",
      "expl ained",
      "extr acting",
      "extr avagant",
      "expres sed",
      "expres sion",
      "exten sive",
      "exten sion",
      "brick work",
      "broad cast",
      "broad casters",
      "audi o",
      "audi ence",
      "owners hip",
      "tele vised",
      "tele vision",
      "proceed s",
      "proceed ings",
      "qual ity",
      "quest ion",
      "quest ionable",
      "avoid able",
      "Any one",
      "box es",
      "indust ry",
      "indust ries",
      "surpris e",
      "surpris ed",
      "assert ions",
      "drop ped",
      "possib ly",
      "possib ilities",
      "room s",
      "scr utiny",
      "scr atched",
      "disappoin ted",
      "disappoin tment",
      "design ed",
      "design ated",
      "counter produ",
      "genet ic",
      "genet ically",
      "writ es",
      "restric ts",
      "restric ted",
      "responsib ility",
      "responsib ilities",
      "capital ized",
      "subst ance",
      "subst antive",
      "Canad ian",
      "Canad ians",
      "Human e",
      "break ing",
      "break through",
      "current ly",
      "launch ed",
      "rule book",
      "analy st",
      "analy ze",
      "danger ous",
      "doub led",
      "doub tless",
      "differ ences",
      "doctor ate",
      "anesthe tic",
      "anesthe siolog",
      "transplan ts",
      "transplan ting",
      "Author ity",
      "Author ities",
      "Brazil ian",
      "James town",
      "London er",
      "Paul o",
      "Prosec utors",
      "Prosec utor",
      "euthan ize",
      "euthan asia",
      "penal ty",
      "penal ize",
      "victim s",
      "attemp ts",
      "attemp ting",
      "channel ing",
      "success or",
      "success ful",
      "6p m",
      "AQ IM",
      "Am bulances",
      "Aul as",
      "Act ivities",
      "Adid as",
      "Amb assador",
      "Ben jam",
      "Bag gy",
      "Baf etim",
      "Bub ba",
      "Bens ouda",
      "Balke es",
      "Co tovi",
      "Cad illac",
      "Cop yright",
      "Count down",
      "DV Ds",
      "Di etmar",
      "Dis trict",
      "Des pite",
      "Dail y",
      "Dipl omacy",
      "Driver s",
      "Dise ase",
      "El sewhere",
      "Equ us",
      "Edi tor",
      "Emb assy",
      "Egy pt",
      "EMT s",
      "Fa ith",
      "Fin ally",
      "Fat ou",
      "Fed eral",
      "Fom bu",
      "Fab rice",
      "Figh ting",
      "Fred die",
      "Follow ing",
      "Ge orgia",
      "Gen eration",
      "Gil more",
[...]
